{
  "version": "1.0",
  "truncation": null,
  "padding": null,
  "added_tokens": [
    {
      "id": 0,
      "content": "<unk>",
      "single_word": false,
      "lstrip": false,
      "rstrip": false,
      "normalized": false,
      "special": true
    },
    {
      "id": 1,
      "content": "<eos>",
      "single_word": false,
      "lstrip": false,
      "rstrip": false,
      "normalized": false,
      "special": true
    }
  ],
  "normalizer": null,
  "pre_tokenizer": {
    "type": "ByteLevel",
    "add_prefix_space": true,
    "trim_offsets": true,
    "use_regex": true
  },
  "post_processor": null,
  "decoder": null,
  "model": {
    "type": "BPE",
    "dropout": null,
    "unk_token": "<unk>",
    "continuing_subword_prefix": null,
    "end_of_word_suffix": null,
    "fuse_unk": false,
    "byte_fallback": false,
    "ignore_merges": false,
    "vocab": {
      "<unk>": 0,
      "<eos>": 1,
      "!": 2,
      "\"": 3,
      "#": 4,
      "$": 5,
      "%": 6,
      "&": 7,
      "'": 8,
      "(": 9,
      ")": 10,
      "*": 11,
      "+": 12,
      ",": 13,
      "-": 14,
      ".": 15,
      "/": 16,
      "0": 17,
      "1": 18,
      "2": 19,
      "3": 20,
      "4": 21,
      "5": 22,
      "6": 23,
      "7": 24,
      "8": 25,
      "9": 26,
      ":": 27,
      ";": 28,
      "<": 29,
      "=": 30,
      ">": 31,
      "?": 32,
      "@": 33,
      "A": 34,
      "B": 35,
      "C": 36,
      "D": 37,
      "E": 38,
      "F": 39,
      "G": 40,
      "H": 41,
      "I": 42,
      "J": 43,
      "K": 44,
      "L": 45,
      "M": 46,
      "N": 47,
      "O": 48,
      "P": 49,
      "Q": 50,
      "R": 51,
      "S": 52,
      "T": 53,
      "U": 54,
      "V": 55,
      "W": 56,
      "X": 57,
      "Y": 58,
      "Z": 59,
      "[": 60,
      "\\": 61,
      "]": 62,
      "^": 63,
      "`": 64,
      "a": 65,
      "b": 66,
      "c": 67,
      "d": 68,
      "e": 69,
      "f": 70,
      "g": 71,
      "h": 72,
      "i": 73,
      "j": 74,
      "k": 75,
      "l": 76,
      "m": 77,
      "n": 78,
      "o": 79,
      "p": 80,
      "q": 81,
      "r": 82,
      "s": 83,
      "t": 84,
      "u": 85,
      "v": 86,
      "w": 87,
      "x": 88,
      "y": 89,
      "z": 90,
      "|": 91,
      "~": 92,
      "¡": 93,
      "¢": 94,
      "£": 95,
      "¤": 96,
      "¥": 97,
      "¦": 98,
      "§": 99,
      "¨": 100,
      "©": 101,
      "ª": 102,
      "«": 103,
      "¬": 104,
      "®": 105,
      "¯": 106,
      "°": 107,
      "±": 108,
      "²": 109,
      "³": 110,
      "´": 111,
      "µ": 112,
      "¶": 113,
      "·": 114,
      "¸": 115,
      "¹": 116,
      "º": 117,
      "»": 118,
      "¼": 119,
      "½": 120,
      "¾": 121,
      "¿": 122,
      "Â": 123,
      "Ã": 124,
      "Ä": 125,
      "Å": 126,
      "Æ": 127,
      "Ê": 128,
      "Ì": 129,
      "Î": 130,
      "Ð": 131,
      "Ñ": 132,
      "Ø": 133,
      "Ù": 134,
      "à": 135,
      "á": 136,
      "â": 137,
      "ã": 138,
      "å": 139,
      "æ": 140,
      "ç": 141,
      "é": 142,
      "ï": 143,
      "Ċ": 144,
      "Ġ": 145,
      "Ģ": 146,
      "ģ": 147,
      "Ĥ": 148,
      "ĥ": 149,
      "Ħ": 150,
      "ħ": 151,
      "Ĩ": 152,
      "ĩ": 153,
      "Ī": 154,
      "ī": 155,
      "Ĭ": 156,
      "ĭ": 157,
      "Į": 158,
      "į": 159,
      "İ": 160,
      "ı": 161,
      "Ĳ": 162,
      "ĳ": 163,
      "Ĵ": 164,
      "ĵ": 165,
      "Ķ": 166,
      "ķ": 167,
      "ĸ": 168,
      "Ĺ": 169,
      "ĺ": 170,
      "Ļ": 171,
      "ļ": 172,
      "Ľ": 173,
      "ľ": 174,
      "Ŀ": 175,
      "ŀ": 176,
      "Ł": 177,
      "ł": 178,
      "Ń": 179,
      "Ġt": 180,
      "he": 181,
      "Ġa": 182,
      "in": 183,
      "Ġthe": 184,
      "er": 185,
      "on": 186,
      "Ġ,": 187,
      "re": 188,
      "Ġs": 189,
      "Ġo": 190,
      "Ġw": 191,
      "ed": 192,
      "un": 193,
      "Ġ.": 194,
      "at": 195,
      "nd": 196,
      "or": 197,
      "Ġc": 198,
      "it": 199,
      "Ġf": 200,
      "en": 201,
      "is": 202,
      "Ġof": 203,
      "es": 204,
      "Ġb": 205,
      "Ġin": 206,
      "ar": 207,
      "unk": 208,
      "an": 209,
      "Ġ<": 210,
      "al": 211,
      "Ġand": 212,
      "Ġp": 213,
      "ing": 214,
      "as": 215,
      "Ġto": 216,
      "Ġm": 217,
      "ro": 218,
      "ic": 219,
      "Ġd": 220,
      "Ġh": 221,
      "ĠĊ": 222,
      "ion": 223,
      "le": 224,
      "ĠT": 225,
      "Ġ=": 226,
      "Ġre": 227,
      "Ġ\"": 228,
      "Ġth": 229,
      "ent": 230,
      "ou": 231,
      "ĠA": 232,
      "Ġ1": 233,
      "il": 234,
      "ĠS": 235,
      "st": 236,
      "Ġl": 237,
      "om": 238,
      "Ġe": 239,
      "Ġn": 240,
      "Ġ@": 241,
      "am": 242,
      "ĠC": 243,
      "el": 244,
      "ad": 245,
      "Ġwas": 246,
      "ac": 247,
      "ĠThe": 248,
      "Ġon": 249,
      "Ġbe": 250,
      "ur": 251,
      "ly": 252,
      "ĠM": 253,
      "Ġ'": 254,
      "ĠI": 255,
      "Ġg": 256,
      "Ġfor": 257,
      "iv": 258,
      "ol": 259,
      "ter": 260,
      "ĠB": 261,
      "-@": 262,
      "Ġ@-@": 263,
      "im": 264,
      "id": 265,
      "ir": 266,
      "Ġas": 267,
      "ct": 268,
      "ig": 269,
      "th": 270,
      "ow": 271,
      "ith": 272,
      "Ġst": 273,
      "ĠH": 274,
      "us": 275,
      "Ġ2": 276,
      "ay": 277,
      "Ġthat": 278,
      "Ġwith": 279,
      "her": 280,
      "ot": 281,
      "ce": 282,
      "ver": 283,
      "ut": 284,
      "ation": 285,
      "et": 286,
      "Ġis": 287,
      "ĠP": 288,
      "Ġwh": 289,
      "ch": 290,
      "Ġby": 291,
      "ĠR": 292,
      "Ġ)": 293,
      "Ġ(": 294,
      "Ġal": 295,
      "ĠF": 296,
      "ĠD": 297,
      "Ġcon": 298,
      "em": 299,
      "ul": 300,
      "ĠW": 301,
      "Ġat": 302,
      "Ġit": 303,
      "Ġ19": 304,
      "and": 305,
      "ain": 306,
      "rom": 307,
      "os": 308,
      "ĠN": 309,
      "Ġan": 310,
      "ĠG": 311,
      "ĠL": 312,
      "ers": 313,
      "Ġhe": 314,
      "est": 315,
      "ag": 316,
      "av": 317,
      "00": 318,
      "ĠJ": 319,
      "Ġse": 320,
      "um": 321,
      "Ġde": 322,
      "Ġhis": 323,
      "Ġr": 324,
      "Ġfrom": 325,
      "od": 326,
      "ĠO": 327,
      "ri": 328,
      "Ġcom": 329,
      "ĠE": 330,
      "pe": 331,
      "und": 332,
      "ist": 333,
      "Ġpro": 334,
      "if": 335,
      "ld": 336,
      "ies": 337,
      "ere": 338,
      "ort": 339,
      "Ġv": 340,
      "res": 341,
      "Ġsu": 342,
      "ore": 343,
      "Ġwere": 344,
      "ill": 345,
      "ĠIn": 346,
      "ap": 347,
      "ong": 348,
      "ew": 349,
      "op": 350,
      "igh": 351,
      "ich": 352,
      "Ġor": 353,
      "ate": 354,
      "art": 355,
      "all": 356,
      "ard": 357,
      "ak": 358,
      "Ġch": 359,
      "ber": 360,
      "ame": 361,
      "Ġex": 362,
      "gh": 363,
      "ab": 364,
      "ud": 365,
      "Ġpl": 366,
      "se": 367,
      "ated": 368,
      "ant": 369,
      "ity": 370,
      "Ġare": 371,
      "Ġâ": 372,
      "oc": 373,
      "ive": 374,
      "ess": 375,
      "qu": 376,
      "Ġsh": 377,
      "ĠâĢ": 378,
      "Ġhad": 379,
      "Ġk": 380,
      "ack": 381,
      "Ġwhich": 382,
      "up": 383,
      "ĠU": 384,
      "red": 385,
      "Ġy": 386,
      "ĠK": 387,
      "Ġle": 388,
      "ov": 389,
      "our": 390,
      "Ġnot": 391,
      "ment": 392,
      "ast": 393,
      "ip": 394,
      "ĠSt": 395,
      "rit": 396,
      "ord": 397,
      "ear": 398,
      "pt": 399,
      "Ġtr": 400,
      "ge": 401,
      "ally": 402,
      "ian": 403,
      "ther": 404,
      "ost": 405,
      "ine": 406,
      "ave": 407,
      "ight": 408,
      "oun": 409,
      "ell": 410,
      "Ġ3": 411,
      "ish": 412,
      "cl": 413,
      "ary": 414,
      "ĠCh": 415,
      "Ġ200": 416,
      "ust": 417,
      "irst": 418,
      "ia": 419,
      "Ġ;": 420,
      "pp": 421,
      "te": 422,
      "Ġcomp": 423,
      "Ġtheir": 424,
      "Ġbut": 425,
      "cc": 426,
      "so": 427,
      "ction": 428,
      "fter": 429,
      "Ġfirst": 430,
      "ous": 431,
      "ure": 432,
      "Ġits": 433,
      "ould": 434,
      "ra": 435,
      "ĠâĢĵ": 436,
      "ide": 437,
      "Ġwhe": 438,
      "Ġcont": 439,
      "Ġar": 440,
      "ue": 441,
      "ical": 442,
      "ome": 443,
      "Ġun": 444,
      "wo": 445,
      "og": 446,
      "hed": 447,
      "Ġ20": 448,
      "Ġ:": 449,
      "ial": 450,
      "ub": 451,
      "ie": 452,
      "Ġher": 453,
      "Ġalso": 454,
      "ition": 455,
      "Ġro": 456,
      "Ġint": 457,
      "ĠV": 458,
      "own": 459,
      "Ġcl": 460,
      "ater": 461,
      "out": 462,
      "ign": 463,
      "Ġus": 464,
      "orm": 465,
      "ork": 466,
      "Ġab": 467,
      "Ġad": 468,
      "ok": 469,
      "ff": 470,
      "per": 471,
      "Ġhave": 472,
      "age": 473,
      "ru": 474,
      "ire": 475,
      "ĠHe": 476,
      "Ġone": 477,
      "ass": 478,
      "Ġhas": 479,
      "Ġrec": 480,
      "low": 481,
      "mer": 482,
      "ime": 483,
      "Ġbeen": 484,
      "Ġtwo": 485,
      "Ġ4": 486,
      "du": 487,
      "Ġres": 488,
      "ĠTh": 489,
      "Ġ18": 490,
      ".@": 491,
      "Ġ@.@": 492,
      "Ġper": 493,
      "ond": 494,
      "Ġ5": 495,
      "ree": 496,
      "Ġbo": 497,
      "Ġwho": 498,
      "ence": 499,
      "uring": 500,
      "ough": 501,
      "land": 502,
      "ted": 503,
      "Ġthis": 504,
      "are": 505,
      "Ġbec": 506,
      "ile": 507,
      "ry": 508,
      "pl": 509,
      "ory": 510,
      "ance": 511,
      "ugh": 512,
      "ect": 513,
      "ĠIt": 514,
      "ans": 515,
      "Ġsc": 516,
      "Ġplay": 517,
      "ĠAl": 518,
      "Ġthey": 519,
      "clud": 520,
      "Ġyear": 521,
      "Ġ201": 522,
      "Ġpart": 523,
      "Ġag": 524,
      "ade": 525,
      "Ġdes": 526,
      "ations": 527,
      "Ġman": 528,
      "ric": 529,
      "Ġother": 530,
      "Ġdis": 531,
      "ult": 532,
      "Ġte": 533,
      "ely": 534,
      "Ġafter": 535,
      "ach": 536,
      "Ġj": 537,
      "Ġser": 538,
      "Ġover": 539,
      "over": 540,
      "Ġoff": 541,
      "Ġup": 542,
      ",@": 543,
      "Ġ@,@": 544,
      "ang": 545,
      "Ġinclud": 546,
      "Ġsp": 547,
      "ions": 548,
      "Ġen": 549,
      "ite": 550,
      "urn": 551,
      "act": 552,
      "ound": 553,
      "ount": 554,
      "Ġim": 555,
      "ace": 556,
      "ice": 557,
      "iz": 558,
      "ib": 559,
      "wn": 560,
      "Ġout": 561,
      "ke": 562,
      "ress": 563,
      "ĠY": 564,
      "ark": 565,
      "Ġtime": 566,
      "Ġne": 567,
      "Ġinto": 568,
      "Ġfin": 569,
      "Ġpre": 570,
      "Ġev": 571,
      "ced": 572,
      "port": 573,
      "we": 574,
      "ĠOn": 575,
      "Ġspe": 576,
      "ces": 577,
      "Ġwould": 578,
      "Ġmore": 579,
      "Ġshe": 580,
      "Ġcomm": 581,
      "ason": 582,
      "Ġatt": 583,
      "ward": 584,
      "rough": 585,
      "Ġall": 586,
      "ren": 587,
      "ose": 588,
      "one": 589,
      "ail": 590,
      "ited": 591,
      "Ġhim": 592,
      "amp": 593,
      "Ġwe": 594,
      "tern": 595,
      "ied": 596,
      "ens": 597,
      "oin": 598,
      "ased": 599,
      "Ġ6": 600,
      "ĠUn": 601,
      "Ġcent": 602,
      "rib": 603,
      "ĠRe": 604,
      "Ġwork": 605,
      "ents": 606,
      "ild": 607,
      "ĠSe": 608,
      "ix": 609,
      "Ġme": 610,
      "ood": 611,
      "ase": 612,
      "les": 613,
      "ings": 614,
      "ts": 615,
      "man": 616,
      "round": 617,
      "Ġ7": 618,
      "Ġfe": 619,
      "Ġthem": 620,
      "able": 621,
      "ious": 622,
      "Ġwhen": 623,
      "Ġbet": 624,
      "Ġsong": 625,
      "ake": 626,
      "ors": 627,
      "Ġsec": 628,
      "ates": 629,
      "als": 630,
      "vel": 631,
      "ubl": 632,
      "Ġear": 633,
      "Ġrem": 634,
      "ĠAn": 635,
      "old": 636,
      "iss": 637,
      "ered": 638,
      "Ġkn": 639,
      "form": 640,
      "Ġmost": 641,
      "Ġduring": 642,
      "gan": 643,
      "ath": 644,
      "aus": 645,
      "Ġonly": 646,
      "fer": 647,
      "under": 648,
      "ilm": 649,
      "Ġnew": 650,
      "Ġgame": 651,
      "oy": 652,
      "ved": 653,
      "ember": 654,
      "ve": 655,
      "orth": 656,
      "ollow": 657,
      "ween": 658,
      "Ġ199": 659,
      "reat": 660,
      "ĠAs": 661,
      "way": 662,
      "outh": 663,
      "ĠAr": 664,
      "Ġ9": 665,
      "Ġ8": 666,
      "Ġrel": 667,
      "Ġcan": 668,
      "Ġabout": 669,
      "ters": 670,
      "Ġagain": 671,
      "Ġseason": 672,
      "Ġthree": 673,
      "Ġcons": 674,
      "Ġthan": 675,
      "ĠEn": 676,
      "ick": 677,
      "ug": 678,
      "ĠMar": 679,
      "Ġbetween": 680,
      "att": 681,
      "aw": 682,
      "ral": 683,
      "Ġrecord": 684,
      "Ġsome": 685,
      "ational": 686,
      "Ġunder": 687,
      "ons": 688,
      "Ġchar": 689,
      "cted": 690,
      "ular": 691,
      "fore": 692,
      "Ġthrough": 693,
      "ind": 694,
      "ict": 695,
      "Ġlater": 696,
      "hip": 697,
      "iew": 698,
      "Ġcol": 699,
      "Ġnum": 700,
      "Ġ00": 701,
      "ĠCom": 702,
      "ft": 703,
      "ision": 704,
      "Ġwrit": 705,
      "Ġwhile": 706,
      "ĠDe": 707,
      "Ġprodu": 708,
      "Ġpos": 709,
      "Ġfilm": 710,
      "Ġrele": 711,
      "Ġver": 712,
      "ames": 713,
      "Ġend": 714,
      "Ġinter": 715,
      "ished": 716,
      "Ġap": 717,
      "ey": 718,
      "Ġpe": 719,
      "Ġmade": 720,
      "Ġpr": 721,
      "Ġform": 722,
      "ning": 723,
      "Ġfl": 724,
      "Ġreg": 725,
      "Ġass": 726,
      "orld": 727,
      "Ġwhere": 728,
      "Ġso": 729,
      "Ġspec": 730,
      "ĠNew": 731,
      "Ġmov": 732,
      "ever": 733,
      "meric": 734,
      "ĠAmeric": 735,
      "ury": 736,
      "Ġlar": 737,
      "bum": 738,
      "Ġac": 739,
      "Ġapp": 740,
      "Ġret": 741,
      "ron": 742,
      "Ġfollow": 743,
      "ener": 744,
      "Ġno": 745,
      "Ġbu": 746,
      "Ġsuch": 747,
      "Ġdef": 748,
      "Ġsecond": 749,
      "ived": 750,
      "Ġfour": 751,
      "ock": 752,
      "aid": 753,
      "Ġmus": 754,
      "Ġqu": 755,
      "Ġacc": 756,
      "Ġused": 757,
      "Ġsub": 758,
      "olog": 759,
      "Ġinc": 760,
      "Ġact": 761,
      "ike": 762,
      "ĠAt": 763,
      "rop": 764,
      "Ġday": 765,
      "ĠThis": 766,
      "ars": 767,
      "ĠLe": 768,
      "Ġpubl": 769,
      "ific": 770,
      "Ġam": 771,
      "ual": 772,
      "Ġcall": 773,
      "Ġalbum": 774,
      "Ġind": 775,
      "hes": 776,
      "Ġ000": 777,
      "Ġbefore": 778,
      "Ġdo": 779,
      "Ġappe": 780,
      "ob": 781,
      "ily": 782,
      "oh": 783,
      "Ġbeing": 784,
      "ank": 785,
      "Ġgr": 786,
      "Ġco": 787,
      "any": 788,
      "Ġyears": 789,
      "ĠEng": 790,
      "Ġthere": 791,
      "Ġsupp": 792,
      "Ġgro": 793,
      "end": 794,
      "ck": 795,
      "owever": 796,
      "ating": 797,
      "ane": 798,
      "Ġfound": 799,
      "Ġ0": 800,
      "Ġele": 801,
      "Ġhigh": 802,
      "Ġset": 803,
      "iel": 804,
      "Ġep": 805,
      "ife": 806,
      "ics": 807,
      "orn": 808,
      "hen": 809,
      "Ġsy": 810,
      "ird": 811,
      "Ġent": 812,
      "other": 813,
      "iver": 814,
      "Ġsur": 815,
      "ained": 816,
      "Ġ10": 817,
      "Ġseries": 818,
      "igin": 819,
      "Ġnumber": 820,
      "pen": 821,
      "ten": 822,
      "ll": 823,
      "ince": 824,
      "Ġloc": 825,
      "ause": 826,
      "Ġdec": 827,
      "Ġpres": 828,
      "ph": 829,
      "velop": 830,
      "Ġboth": 831,
      "ode": 832,
      "Ġsever": 833,
      "ities": 834,
      "cept": 835,
      "Ġ12": 836,
      "Ġthen": 837,
      "Ġincluding": 838,
      "ines": 839,
      "Ġepis": 840,
      "son": 841,
      "ĠBrit": 842,
      "Ġ/": 843,
      "Ġagainst": 844,
      "Ġwell": 845,
      "Ġbecame": 846,
      "Ġknown": 847,
      "ject": 848,
      "ĠâĢĶ": 849,
      "ros": 850,
      "ised": 851,
      "Ġpo": 852,
      "ton": 853,
      "Ġcharac": 854,
      "Ġadd": 855,
      "Ġperform": 856,
      "Ġdesc": 857,
      "Ġsing": 858,
      "Ġbl": 859,
      "Ġgo": 860,
      "Ġcap": 861,
      "Ġ198": 862,
      "Ġdire": 863,
      "urch": 864,
      "ĠJoh": 865,
      "aj": 866,
      "Ġ16": 867,
      "ale": 868,
      "Ġback": 869,
      "Ġmany": 870,
      "ĠSh": 871,
      "Ġpop": 872,
      "pr": 873,
      "Ġmain": 874,
      "ident": 875,
      "though": 876,
      "ĠUnited": 877,
      "Ġinv": 878,
      "Ġstud": 879,
      "its": 880,
      "Ġlong": 881,
      "ise": 882,
      "ather": 883,
      "ures": 884,
      "Ġtrans": 885,
      "Ġorigin": 886,
      "io": 887,
      "ĠJohn": 888,
      "ĠBr": 889,
      "iet": 890,
      "ert": 891,
      "ement": 892,
      "Ġcentury": 893,
      "Ġmon": 894,
      "Ġteam": 895,
      "ober": 896,
      "ĠAfter": 897,
      "ool": 898,
      "ĠSc": 899,
      "Ġest": 900,
      "Ġdevelop": 901,
      "Ġshow": 902,
      "ann": 903,
      "Ġmin": 904,
      "ield": 905,
      "ek": 906,
      "ower": 907,
      "Ġem": 908,
      "ier": 909,
      "elf": 910,
      "Ġ194": 911,
      "air": 912,
      "ute": 913,
      "Ġcre": 914,
      "Ġseveral": 915,
      "ĠShe": 916,
      "Ġlead": 917,
      "uch": 918,
      "Ġ17": 919,
      "ared": 920,
      "Ġbegan": 921,
      "Ġ196": 922,
      "ful": 923,
      "ivers": 924,
      "ern": 925,
      "Ġ11": 926,
      "Ġ15": 927,
      "Ġmill": 928,
      "Ġdif": 929,
      "Ġcontin": 930,
      "Ġ197": 931,
      "overn": 932,
      "Ġsign": 933,
      "ually": 934,
      "ram": 935,
      "view": 936,
      "Ġsm": 937,
      "ired": 938,
      "ative": 939,
      "Ġmay": 940,
      "Ġship": 941,
      "Ġcomple": 942,
      "Ġbr": 943,
      "Ġcould": 944,
      "Ġearly": 945,
      "Ġcrit": 946,
      "Ġdid": 947,
      "Ġcalled": 948,
      "ains": 949,
      "Ġart": 950,
      "Ġepisode": 951,
      "til": 952,
      "Ġnear": 953,
      "Ġob": 954,
      "ĠInd": 955,
      "Ġhist": 956,
      "Ġpol": 957,
      "Ġdescrib": 958,
      "led": 959,
      "Ġbel": 960,
      "emb": 961,
      "ued": 962,
      "Ġrece": 963,
      "ople": 964,
      "iam": 965,
      "une": 966,
      "Ġalong": 967,
      "Ġrun": 968,
      "ins": 969,
      "Ġter": 970,
      "imes": 971,
      "ments": 972,
      "Ġdep": 973,
      "Ġbro": 974,
      "ccess": 975,
      "Ġsaid": 976,
      "ley": 977,
      "ĠWh": 978,
      "Ġfeat": 979,
      "ĠAmerican": 980,
      "Ġdown": 981,
      "ven": 982,
      "ĠIs": 983,
      "Ġinst": 984,
      "Ġthese": 985,
      "aking": 986,
      "ĠMay": 987,
      "der": 988,
      "Ġmil": 989,
      "Ġdist": 990,
      "ĠAust": 991,
      "Ġthough": 992,
      "gest": 993,
      "ĠGer": 994,
      "ross": 995,
      "Ġdisc": 996,
      "yl": 997,
      "ĠBritish": 998,
      "Ġoper": 999,
      "Ġuntil": 1000,
      "ĠZ": 1001,
      "ove": 1002,
      "ting": 1003,
      "oot": 1004,
      "Ġstart": 1005,
      "anc": 1006,
      "Ġcity": 1007,
      "Ġsame": 1008,
      "rap": 1009,
      "Ġinf": 1010,
      "ured": 1011,
      "Ġprev": 1012,
      "Ġreleased": 1013,
      "els": 1014,
      "Ġgener": 1015,
      "ty": 1016,
      "ange": 1017,
      "Ġexp": 1018,
      "Ġown": 1019,
      "ized": 1020,
      "Ġany": 1021,
      "Ġreturn": 1022,
      "tend": 1023,
      "amed": 1024,
      "ĠThey": 1025,
      "ially": 1026,
      "ĠWar": 1027,
      "Ġkm": 1028,
      "ided": 1029,
      "Ġland": 1030,
      "Ġdesign": 1031,
      "Ġwar": 1032,
      "Ġrep": 1033,
      "Ġmusic": 1034,
      "Ġprov": 1035,
      "Ġimp": 1036,
      "Ġmillion": 1037,
      "Ġbecause": 1038,
      "Ġarea": 1039,
      "Ġuse": 1040,
      "ajor": 1041,
      "ĠCon": 1042,
      "Ġcar": 1043,
      "Ġfam": 1044,
      "Ġair": 1045,
      "az": 1046,
      "ĠAug": 1047,
      "ĠAugust": 1048,
      "oman": 1049,
      "Ġlike": 1050,
      "Ġopen": 1051,
      "Ġsuccess": 1052,
      "Ġmat": 1053,
      "osed": 1054,
      "Ġsim": 1055,
      "ĠFr": 1056,
      "ĠChr": 1057,
      "Ġocc": 1058,
      "erson": 1059,
      "ink": 1060,
      "ep": 1061,
      "enn": 1062,
      "Ġconst": 1063,
      "ook": 1064,
      "Ġpeople": 1065,
      "ull": 1066,
      "Ġeff": 1067,
      "hy": 1068,
      "ium": 1069,
      "Ġins": 1070,
      "Ġpass": 1071,
      "chool": 1072,
      "Ġoffic": 1073,
      "stem": 1074,
      "ible": 1075,
      "xt": 1076,
      "Ġsix": 1077,
      "Ġcount": 1078,
      "Ġ195": 1079,
      "Ġsupport": 1080,
      "ĠBl": 1081,
      "ĠBe": 1082,
      "Ġaround": 1083,
      "my": 1084,
      "ĠHowever": 1085,
      "Ġsmall": 1086,
      "ah": 1087,
      "Ġwin": 1088,
      "Ġ%": 1089,
      "ĠSept": 1090,
      "uc": 1091,
      "Ġnorth": 1092,
      "Ġadv": 1093,
      "Ġdam": 1094,
      "Ġgroup": 1095,
      "Ġstr": 1096,
      "ĠCar": 1097,
      "Ġpoin": 1098,
      "Ġeach": 1099,
      "ĠSeptember": 1100,
      "ues": 1101,
      "ony": 1102,
      "Ġconsid": 1103,
      "Ġmet": 1104,
      "ouse": 1105,
      "Ġfollowing": 1106,
      "ĠPl": 1107,
      "Ġcharacter": 1108,
      "ĠJu": 1109,
      "erv": 1110,
      "ists": 1111,
      "wards": 1112,
      "ĠWorld": 1113,
      "Ġlife": 1114,
      "ms": 1115,
      "Ġed": 1116,
      "ĠAustral": 1117,
      "Ġhead": 1118,
      "Ġ13": 1119,
      "aining": 1120,
      "Ġfive": 1121,
      "Ġmod": 1122,
      "Ġcontro": 1123,
      "Ġgovern": 1124,
      "Ġattack": 1125,
      "ole": 1126,
      "Ġ193": 1127,
      "ording": 1128,
      "ĠComm": 1129,
      "ient": 1130,
      "ales": 1131,
      "Ġvar": 1132,
      "oss": 1133,
      "uth": 1134,
      "ĠAll": 1135,
      "Ġwill": 1136,
      "ĠTe": 1137,
      "Ġlarge": 1138,
      "Ġever": 1139,
      "ution": 1140,
      "ets": 1141,
      "Ġ191": 1142,
      "ĠII": 1143,
      "ĠHer": 1144,
      "Ġgu": 1145,
      "ĠCol": 1146,
      "Ġann": 1147,
      "Ġreport": 1148,
      "row": 1149,
      "Ġconc": 1150,
      "ague": 1151,
      "ural": 1152,
      "ĠUS": 1153,
      "ĠMe": 1154,
      "ĠCl": 1155,
      "rote": 1156,
      "lish": 1157,
      "ĠJune": 1158,
      "Ġbook": 1159,
      "ĠNorth": 1160,
      "aving": 1161,
      "aced": 1162,
      "ĠEu": 1163,
      "ash": 1164,
      "ĠFor": 1165,
      "Ġtit": 1166,
      "ĠGerman": 1167,
      "dom": 1168,
      "Ġsince": 1169,
      "ĠStates": 1170,
      "ik": 1171,
      "Ġprom": 1172,
      "Ġsouth": 1173,
      "Ġreceived": 1174,
      "Ġmajor": 1175,
      "Ġfinal": 1176,
      "ilt": 1177,
      "med": 1178,
      "ped": 1179,
      "Ġname": 1180,
      "ately": 1181,
      "ivision": 1182,
      "ĠJan": 1183,
      "ĠAd": 1184,
      "pect": 1185,
      "ĠOct": 1186,
      "Ġpartic": 1187,
      "Ġsystem": 1188,
      "ĠSouth": 1189,
      "Ġpublic": 1190,
      "Ġcare": 1191,
      "Ġstate": 1192,
      "Ġdr": 1193,
      "ĠChrist": 1194,
      "Ġwhat": 1195,
      "ĠKing": 1196,
      "ives": 1197,
      "Ġdirect": 1198,
      "uary": 1199,
      "Ġlast": 1200,
      "Ġhel": 1201,
      "Ġdescribed": 1202,
      "tle": 1203,
      "hel": 1204,
      "Ġext": 1205,
      "ĠOctober": 1206,
      "ored": 1207,
      "Ġ14": 1208,
      "Ġline": 1209,
      "Ġ$": 1210,
      "Ġappear": 1211,
      "Ġrest": 1212,
      "ĠCan": 1213,
      "Ġbatt": 1214,
      "Ġweek": 1215,
      "Ġplayed": 1216,
      "cess": 1217,
      "Ġclass": 1218,
      "Ġbuild": 1219,
      "Ġincre": 1220,
      "Ġtook": 1221,
      "ropical": 1222,
      "Ġnow": 1223,
      "ĠFe": 1224,
      "ĠNov": 1225,
      "arl": 1226,
      "Ġ[": 1227,
      "Ġ]": 1228,
      "ĠYork": 1229,
      "gin": 1230,
      "Ġworld": 1231,
      "aged": 1232,
      "ĠJuly": 1233,
      "Ġwrote": 1234,
      "Ġlate": 1235,
      "ages": 1236,
      "..": 1237,
      "ĠTr": 1238,
      "iving": 1239,
      "empt": 1240,
      "Ã©": 1241,
      "ional": 1242,
      "ble": 1243,
      "Ġwon": 1244,
      "Ġspecies": 1245,
      "ology": 1246,
      "ideo": 1247,
      "Ġstru": 1248,
      "aim": 1249,
      "Ġchild": 1250,
      "Ġ...": 1251,
      "Ġmuch": 1252,
      "Ġ25": 1253,
      "ĠDuring": 1254,
      "Ġdue": 1255,
      "ody": 1256,
      "ified": 1257,
      "Ġserv": 1258,
      "ĠApr": 1259,
      "Ġsingle": 1260,
      "ĠApril": 1261,
      "Ġcamp": 1262,
      "Ġallow": 1263,
      "ats": 1264,
      "iod": 1265,
      "min": 1266,
      "ĠGu": 1267,
      "Ġshort": 1268,
      "Ġport": 1269,
      "Ġdeath": 1270,
      "Ġvers": 1271,
      "Ġjust": 1272,
      "ball": 1273,
      "Ġty": 1274,
      "Ġmar": 1275,
      "Ġanother": 1276,
      "Ġincluded": 1277,
      "ĠEuro": 1278,
      "Ġposs": 1279,
      "ĠJanuary": 1280,
      "Ġold": 1281,
      "ility": 1282,
      "ively": 1283,
      "Ġstorm": 1284,
      "get": 1285,
      "Ġeven": 1286,
      "Ġdiffer": 1287,
      "Ġgun": 1288,
      "Ġwithin": 1289,
      "ĠEngland": 1290,
      "Ġlist": 1291,
      "ission": 1292,
      "Ġleft": 1293,
      "Ġresult": 1294,
      "ism": 1295,
      "omin": 1296,
      "Ġposition": 1297,
      "Ġnamed": 1298,
      "Ġbased": 1299,
      "Ġestab": 1300,
      "Ġif": 1301,
      "Ġconf": 1302,
      "ants": 1303,
      "Ġarr": 1304,
      "Ġalthough": 1305,
      "Ġvis": 1306,
      "Ġprog": 1307,
      "Ġattempt": 1308,
      "ax": 1309,
      "ont": 1310,
      "Ġ30": 1311,
      "Ġvery": 1312,
      "Ġappro": 1313,
      "ina": 1314,
      "Ġthird": 1315,
      "Ġgames": 1316,
      "by": 1317,
      "ital": 1318,
      "Ġtop": 1319,
      "Ġref": 1320,
      "ĠAnd": 1321,
      "akes": 1322,
      "Ġbelie": 1323,
      "Ġtrack": 1324,
      "ctions": 1325,
      "ĠMarch": 1326,
      "ner": 1327,
      "ple": 1328,
      "Ġlit": 1329,
      "ĠGr": 1330,
      "Ġprevious": 1331,
      "Ġfamily": 1332,
      "ĠMus": 1333,
      "ĠPro": 1334,
      "ĠNovember": 1335,
      "Ġpower": 1336,
      "Ġtri": 1337,
      "Ġreview": 1338,
      "Ġperiod": 1339,
      "Ġevent": 1340,
      "ĠQ": 1341,
      "Ġbest": 1342,
      "Ġhome": 1343,
      "ĠGe": 1344,
      "mber": 1345,
      "Ġway": 1346,
      "ilar": 1347,
      "urric": 1348,
      "Ġschool": 1349,
      "Ġresp": 1350,
      "ĠRo": 1351,
      "ĠEurope": 1352,
      "Ġwater": 1353,
      "ĠHis": 1354,
      "Ġgovernment": 1355,
      "ances": 1356,
      "ograp": 1357,
      "ently": 1358,
      "cember": 1359,
      "Ġexpl": 1360,
      "ĠDecember": 1361,
      "Ġ192": 1362,
      "Ġmen": 1363,
      "ret": 1364,
      "Ġthose": 1365,
      "avy": 1366,
      "raft": 1367,
      "ĠThere": 1368,
      "ĠBy": 1369,
      "ger": 1370,
      "Ġturn": 1371,
      "Ġconstru": 1372,
      "ience": 1373,
      "Ġhum": 1374,
      "Ġplace": 1375,
      "ĠCity": 1376,
      "ulation": 1377,
      "Ġorgan": 1378,
      "Ġsl": 1379,
      "Ġbuilt": 1380,
      "ature": 1381,
      "Ġbre": 1382,
      "pend": 1383,
      "ards": 1384,
      "urther": 1385,
      "Ġgreat": 1386,
      "ians": 1387,
      "ides": 1388,
      "Ġstory": 1389,
      "Ġprote": 1390,
      "Ġcommand": 1391,
      "ached": 1392,
      "Ġkill": 1393,
      "Ġmonth": 1394,
      "ĠWhen": 1395,
      "Ġcolle": 1396,
      "ched": 1397,
      "hest": 1398,
      "Ġsent": 1399,
      "Ġperson": 1400,
      "Ġoriginal": 1401,
      "ript": 1402,
      "iversity": 1403,
      "itary": 1404,
      "Ġmake": 1405,
      "Ġhand": 1406,
      "Ġopp": 1407,
      "eder": 1408,
      "Ġ100": 1409,
      "Ġ2009": 1410,
      "Ġ2010": 1411,
      "Ġmed": 1412,
      "Ġvideo": 1413,
      "ĠNational": 1414,
      "ĠÂ": 1415,
      "Ġ2008": 1416,
      "Ġauth": 1417,
      "Ġrequ": 1418,
      "Ġhal": 1419,
      "ention": 1420,
      "Ġpresent": 1421,
      "oci": 1422,
      "aur": 1423,
      "por": 1424,
      "Ġmark": 1425,
      "Ġph": 1426,
      "Ġsug": 1427,
      "ham": 1428,
      "Ġclub": 1429,
      "Ġeng": 1430,
      "ences": 1431,
      "riend": 1432,
      "iven": 1433,
      "aster": 1434,
      "elt": 1435,
      "ene": 1436,
      "Ġview": 1437,
      "ĠMc": 1438,
      "ically": 1439,
      "self": 1440,
      "ĠRiver": 1441,
      "Ġmoved": 1442,
      "Ġled": 1443,
      "Ġrole": 1444,
      "Ġaddition": 1445,
      "Ġcapt": 1446,
      "Ġstand": 1447,
      "Ġstill": 1448,
      "Ġcame": 1449,
      "Ġleg": 1450,
      "Ġlocal": 1451,
      "Ġiss": 1452,
      "Ġrepl": 1453,
      "rench": 1454,
      "gy": 1455,
      "ense": 1456,
      "ĠPr": 1457,
      "aff": 1458,
      "Ġoften": 1459,
      "Ġhistory": 1460,
      "urricane": 1461,
      "Ġcommon": 1462,
      "Ġcaus": 1463,
      "Ġdest": 1464,
      "ival": 1465,
      "ĠWe": 1466,
      "Ġcour": 1467,
      "ae": 1468,
      "ison": 1469,
      "ĠMan": 1470,
      "Ġdem": 1471,
      "aken": 1472,
      "Ġeffect": 1473,
      "ery": 1474,
      "Ġfew": 1475,
      "be": 1476,
      "ĠBo": 1477,
      "ady": 1478,
      "ĠNo": 1479,
      "ops": 1480,
      "Ġ2007": 1481,
      "Ġnext": 1482,
      "Ġconsidered": 1483,
      "ĠFl": 1484,
      "Ġtrad": 1485,
      "ories": 1486,
      "eng": 1487,
      "Ġplayer": 1488,
      "Ġsuggest": 1489,
      "ling": 1490,
      "lev": 1491,
      "Ġstar": 1492,
      "astern": 1493,
      "ĠSp": 1494,
      "ĠFrench": 1495,
      "Ġexper": 1496,
      "side": 1497,
      "Ġmy": 1498,
      "Ġsimilar": 1499,
      "Ġcareer": 1500,
      "ĠOne": 1501,
      "Ġrecorded": 1502,
      "ĠEnglish": 1503,
      "Ġside": 1504,
      "uss": 1505,
      "Ġright": 1506,
      "ĠPe": 1507,
      "ined": 1508,
      "Ġcr": 1509,
      "Ġinit": 1510,
      "let": 1511,
      "Ġimport": 1512,
      "Ġreal": 1513,
      "ĠOr": 1514,
      "Ġclaim": 1515,
      "que": 1516,
      "ĠBatt": 1517,
      "Ġcompany": 1518,
      "ai": 1519,
      "Ġcover": 1520,
      "Ġpublished": 1521,
      "ĠBro": 1522,
      "Ġdeb": 1523,
      "Ġcontinued": 1524,
      "Ġcontr": 1525,
      "rew": 1526,
      "arn": 1527,
      "idge": 1528,
      "Ġrefer": 1529,
      "Ġyou": 1530,
      "Ġtake": 1531,
      "Ġbas": 1532,
      "Ġwithout": 1533,
      "Ġsold": 1534,
      "Ġmid": 1535,
      "ĠPh": 1536,
      "ternational": 1537,
      "Ġsongs": 1538,
      "Ġdifferent": 1539,
      "Ġsay": 1540,
      "Ġtown": 1541,
      "Ġformer": 1542,
      "ĠWith": 1543,
      "Ġant": 1544,
      "ior": 1545,
      "Ġwind": 1546,
      "Ġheld": 1547,
      "ĠComp": 1548,
      "atter": 1549,
      "ister": 1550,
      "uted": 1551,
      "ĠAcc": 1552,
      "Ġamong": 1553,
      "ness": 1554,
      "Ġmemb": 1555,
      "Ġlevel": 1556,
      "lu": 1557,
      "Ġtot": 1558,
      "Ġarch": 1559,
      "Ġroad": 1560,
      "Ġtem": 1561,
      "Ġpolit": 1562,
      "Ġfield": 1563,
      "ged": 1564,
      "Ġwritten": 1565,
      "arch": 1566,
      "thing": 1567,
      "ĠState": 1568,
      "bs": 1569,
      "Ġplan": 1570,
      "Ġevery": 1571,
      "ps": 1572,
      "Ġes": 1573,
      "ĠPort": 1574,
      "Ġhalf": 1575,
      "alk": 1576,
      "Ġ21": 1577,
      "ĠDivision": 1578,
      "ampions": 1579,
      "Ġtw": 1580,
      "Ġ2011": 1581,
      "Ġrelease": 1582,
      "resent": 1583,
      "ves": 1584,
      "estern": 1585,
      "iment": 1586,
      "ĠWill": 1587,
      "ead": 1588,
      "Ġbecome": 1589,
      "Ġav": 1590,
      "Ġfurther": 1591,
      "Ġmag": 1592,
      "Ġ2006": 1593,
      "Ġcommun": 1594,
      "tended": 1595,
      "ĠAccording": 1596,
      "ĠAlthough": 1597,
      "ensive": 1598,
      "Ġwest": 1599,
      "Ġhowever": 1600,
      "Ġchurch": 1601,
      "Ġ23": 1602,
      "Ġdays": 1603,
      "Ġstrong": 1604,
      "ĠCanad": 1605,
      "yle": 1606,
      "itar": 1607,
      "Ġeast": 1608,
      "Ġfind": 1609,
      "Ġversion": 1610,
      "roy": 1611,
      "lear": 1612,
      "Ġjoin": 1613,
      "ung": 1614,
      "br": 1615,
      "bru": 1616,
      "Ġ&": 1617,
      "ott": 1618,
      "ried": 1619,
      "ĠChurch": 1620,
      "Ġcompet": 1621,
      "Ġtitle": 1622,
      "ĠCount": 1623,
      "Ġparticular": 1624,
      "ne": 1625,
      "pite": 1626,
      "mp": 1627,
      "Ġlow": 1628,
      "Ġmilitary": 1629,
      "Ġpar": 1630,
      "Ġdel": 1631,
      "par": 1632,
      "Ġbeh": 1633,
      "rodu": 1634,
      "ĠRoman": 1635,
      "Ġorder": 1636,
      "ĠLeague": 1637,
      "Ġauthor": 1638,
      "Ġprop": 1639,
      "ĠMin": 1640,
      "Ġdefe": 1641,
      "Ġcontrol": 1642,
      "Ġfoot": 1643,
      "aly": 1644,
      "outher": 1645,
      "ĠSong": 1646,
      "ĠFebru": 1647,
      "outhern": 1648,
      "ĠFebruary": 1649,
      "ĠPer": 1650,
      "ĠGener": 1651,
      "Ġtimes": 1652,
      "fric": 1653,
      "Ġgave": 1654,
      "Ġ22": 1655,
      "Ġless": 1656,
      "Ġ!": 1657,
      "Ġsit": 1658,
      "Ġ26": 1659,
      "Ġreported": 1660,
      "Ġmembers": 1661,
      "Ġfr": 1662,
      "Ġband": 1663,
      "ĠDyl": 1664,
      "Ġvict": 1665,
      "raw": 1666,
      "ĠDylan": 1667,
      "Ġ24": 1668,
      "ots": 1669,
      "Ġchang": 1670,
      "ĠGeor": 1671,
      "Ġfore": 1672,
      "ĠAb": 1673,
      "Ġnort": 1674,
      "Ġproduced": 1675,
      "ches": 1676,
      "Ġ2012": 1677,
      "levision": 1678,
      "Ġprof": 1679,
      "Ġel": 1680,
      "Ġtotal": 1681,
      "augh": 1682,
      "ices": 1683,
      "ĠPark": 1684,
      "ĠOld": 1685,
      "ailed": 1686,
      "ering": 1687,
      "urs": 1688,
      "Ġstat": 1689,
      "ĠWest": 1690,
      "line": 1691,
      "aces": 1692,
      "Ġproduction": 1693,
      "Ġpopular": 1694,
      "iety": 1695,
      "Ġfre": 1696,
      "Ġdecl": 1697,
      "ception": 1698,
      "Ġtropical": 1699,
      "ĠBar": 1700,
      "Ġnov": 1701,
      "ront": 1702,
      "hern": 1703,
      "oung": 1704,
      "Ġproject": 1705,
      "Ġsol": 1706,
      "Ġforces": 1707,
      "ĠJap": 1708,
      "itions": 1709,
      "Ġpoint": 1710,
      "Ġchildren": 1711,
      "ĠJapan": 1712,
      "Ġcur": 1713,
      "Ġcult": 1714,
      "Ġhaving": 1715,
      "ĠPar": 1716,
      "Ġinclude": 1717,
      "reen": 1718,
      "Ġcritic": 1719,
      "Ġobs": 1720,
      "Ġhistor": 1721,
      "pec": 1722,
      "ler": 1723,
      "Ġ28": 1724,
      "Ġinvol": 1725,
      "ĠX": 1726,
      "alion": 1727,
      "Ġlost": 1728,
      "Ġinflu": 1729,
      "Ġgiven": 1730,
      "Ġwant": 1731,
      "ĠAss": 1732,
      "inc": 1733,
      "ression": 1734,
      "Ġcountry": 1735,
      "sh": 1736,
      "Ġtro": 1737,
      "Ġfire": 1738,
      "Ġsignific": 1739,
      "Ġrepresent": 1740,
      "Ġmanag": 1741,
      "ape": 1742,
      "omen": 1743,
      "ize": 1744,
      "Ġ2013": 1745,
      "ĠSim": 1746,
      "chn": 1747,
      "Ġsite": 1748,
      "omet": 1749,
      "Ġseen": 1750,
      "osp": 1751,
      "Ġeight": 1752,
      "ĠDes": 1753,
      "Ġprogram": 1754,
      "Ġmaking": 1755,
      "ĠAm": 1756,
      "vers": 1757,
      "Ġnever": 1758,
      "Ġfar": 1759,
      "ĠMiss": 1760,
      "Ġstated": 1761,
      "Ġestabl": 1762,
      "Ġpress": 1763,
      "Ġdet": 1764,
      "ĠAfric": 1765,
      "Ġcomb": 1766,
      "ĠEd": 1767,
      "ĠGeneral": 1768,
      "Ġbody": 1769,
      "Ġshould": 1770,
      "Ġaff": 1771,
      "ĠCent": 1772,
      "ĠWhile": 1773,
      "Ġmatch": 1774,
      "ither": 1775,
      "Ġfact": 1776,
      "ploy": 1777,
      "Ġreturned": 1778,
      "reet": 1779,
      "ising": 1780,
      "Ġpat": 1781,
      "ĠDav": 1782,
      "ĠUniversity": 1783,
      "rent": 1784,
      "craft": 1785,
      "Ġfem": 1786,
      "enc": 1787,
      "Ġord": 1788,
      "Ġft": 1789,
      "Ġpost": 1790,
      "ĠPol": 1791,
      "ours": 1792,
      "ĠThese": 1793,
      "Ġ190": 1794,
      "ĠAmerica": 1795,
      "ĠEar": 1796,
      "Ġships": 1797,
      "Ġestablished": 1798,
      "Ġsound": 1799,
      "Ġhow": 1800,
      "Ġisland": 1801,
      "sequ": 1802,
      "Ġearl": 1803,
      "ampionship": 1804,
      "Ġpopulation": 1805,
      "Ġannoun": 1806,
      "Ġreached": 1807,
      "Ġequ": 1808,
      "ĠSte": 1809,
      "Ġstruct": 1810,
      "ĠJack": 1811,
      "Ġchart": 1812,
      "Ġ50": 1813,
      "Ġaway": 1814,
      "reland": 1815,
      "Ġsoc": 1816,
      "ades": 1817,
      "ĠIreland": 1818,
      "ably": 1819,
      "Ġnoted": 1820,
      "ĠAir": 1821,
      "igade": 1822,
      "ĠHa": 1823,
      "Ġtoo": 1824,
      "play": 1825,
      "aul": 1826,
      "ope": 1827,
      "Ġfriend": 1828,
      "Ġgod": 1829,
      "Ġground": 1830,
      "Ġthroughout": 1831,
      "Ġacross": 1832,
      "Ġdeveloped": 1833,
      "Ġthought": 1834,
      "Ġlight": 1835,
      "ĠEv": 1836,
      "fic": 1837,
      "ox": 1838,
      "Ġseven": 1839,
      "me": 1840,
      "Ġgen": 1841,
      "Ġ27": 1842,
      "ĠLond": 1843,
      "Ġintrodu": 1844,
      "ĠLondon": 1845,
      "Ġdiv": 1846,
      "Ġusing": 1847,
      "Ġhimself": 1848,
      "ground": 1849,
      "Ġdevelopment": 1850,
      "ĠNe": 1851,
      "ĠWilliam": 1852,
      "Ġgood": 1853,
      "Ġdestroy": 1854,
      "Ġla": 1855,
      "ĠFeder": 1856,
      "ford": 1857,
      "Ġhig": 1858,
      "Ġlim": 1859,
      "aint": 1860,
      "ument": 1861,
      "most": 1862,
      "Ġfelt": 1863,
      "ese": 1864,
      "ĠMich": 1865,
      "Ġsignificant": 1866,
      "used": 1867,
      "reek": 1868,
      "ĠAustralia": 1869,
      "yn": 1870,
      "idence": 1871,
      "ctor": 1872,
      "ological": 1873,
      "Ġperformed": 1874,
      "Ġimportant": 1875,
      "au": 1876,
      "Ġcast": 1877,
      "work": 1878,
      "Ġpra": 1879,
      "amb": 1880,
      "Ġwriting": 1881,
      "ĠAtl": 1882,
      "Ġmiles": 1883,
      "Ġcou": 1884,
      "Ġfather": 1885,
      "arr": 1886,
      "ords": 1887,
      "Ġtelevision": 1888,
      "oon": 1889,
      "Ġide": 1890,
      "int": 1891,
      "ream": 1892,
      "Ġinterest": 1893,
      "ĠBlack": 1894,
      "Ġvarious": 1895,
      "atic": 1896,
      "ivil": 1897,
      "Ġareas": 1898,
      "Ġhuman": 1899,
      "imately": 1900,
      "Ġtour": 1901,
      "Ġnight": 1902,
      "Ġblack": 1903,
      "ones": 1904,
      "Ġfull": 1905,
      "Ġdied": 1906,
      "Ġtyp": 1907,
      "Ġwent": 1908,
      "Ġlook": 1909,
      "utes": 1910,
      "Ġprot": 1911,
      "Ġwat": 1912,
      "Ġwhite": 1913,
      "ĠRich": 1914,
      "Ġrad": 1915,
      "ĠChar": 1916,
      "aren": 1917,
      "Ġactiv": 1918,
      "Ġdoes": 1919,
      "Ġsuccessful": 1920,
      "aign": 1921,
      "ĠRober": 1922,
      "Ġevents": 1923,
      "Ġneed": 1924,
      "ĠReg": 1925,
      "Ġsk": 1926,
      "Ġlaw": 1927,
      "ief": 1928,
      "ĠRoad": 1929,
      "Ġplayers": 1930,
      "Ġstarted": 1931,
      "ges": 1932,
      "ĠRoy": 1933,
      "ĠJames": 1934,
      "Ġmodern": 1935,
      "Ġten": 1936,
      "ask": 1937,
      "Ġmm": 1938,
      "Ġdiscover": 1939,
      "Ġsee": 1940,
      "Ġfeet": 1941,
      "Ġformed": 1942,
      "Ġcor": 1943,
      "itive": 1944,
      "Ġpoem": 1945,
      "tain": 1946,
      "Ġrange": 1947,
      "antic": 1948,
      "Ġconv": 1949,
      "Ġperformance": 1950,
      "ĠCounty": 1951,
      "Ġmix": 1952,
      "Ġhouse": 1953,
      "Ġstyle": 1954,
      "rick": 1955,
      "Ġrelations": 1956,
      "Ġbuilding": 1957,
      "Ġball": 1958,
      "Ġcaused": 1959,
      "Ġcat": 1960,
      "Ġforce": 1961,
      "na": 1962,
      "Ġage": 1963,
      "Ġread": 1964,
      "Ġprim": 1965,
      "Ġput": 1966,
      "ald": 1967,
      "ster": 1968,
      "ration": 1969,
      "ĠEl": 1970,
      "Ġvill": 1971,
      "Ġtrav": 1972,
      "Ġtechn": 1973,
      "ĠYou": 1974,
      "Ġcy": 1975,
      "alth": 1976,
      "Ġcreated": 1977,
      "af": 1978,
      "ael": 1979,
      "ico": 1980,
      "ĠPal": 1981,
      "Ġ189": 1982,
      "Ġofficial": 1983,
      "Ġnovel": 1984,
      "con": 1985,
      "Ġ2004": 1986,
      "Ġsuff": 1987,
      "Ġ2005": 1988,
      "ublic": 1989,
      "Ġentire": 1990,
      "isc": 1991,
      "ĠTo": 1992,
      "ush": 1993,
      "Ġke": 1994,
      "ogn": 1995,
      "Ġable": 1996,
      "Ġpolitical": 1997,
      "ec": 1998,
      "Ġfun": 1999,
      "ourn": 2000,
      "Ġcharacters": 2001,
      "Ġsum": 2002,
      "Ġget": 2003,
      "Ġothers": 2004,
      "Ġrelig": 2005,
      "Ġcoast": 2006,
      "ĠMag": 2007,
      "ĠHigh": 2008,
      "Ġconstruction": 2009,
      "omb": 2010,
      "Ġbird": 2011,
      "Ġbegin": 2012,
      "aves": 2013,
      "abor": 2014,
      "iness": 2015,
      "oll": 2016,
      "Ġoccur": 2017,
      "ring": 2018,
      "Ġson": 2019,
      "Ġpit": 2020,
      "Ġpri": 2021,
      "epend": 2022,
      "Ġcert": 2023,
      "ĠTown": 2024,
      "ĠâĢĻ": 2025,
      "day": 2026,
      "ying": 2027,
      "Ġred": 2028,
      "ĠGl": 2029,
      "ressed": 2030,
      "Ġonce": 2031,
      "ample": 2032,
      "Ġremained": 2033,
      "ĠAng": 2034,
      "Ġlocated": 2035,
      "ination": 2036,
      "rest": 2037,
      "iting": 2038,
      "asing": 2039,
      "ĠCare": 2040,
      "Ġste": 2041,
      "isted": 2042,
      "Ġbecom": 2043,
      "Ġsurv": 2044,
      "Ġpromot": 2045,
      "Ġbattle": 2046,
      "fall": 2047,
      "Ġlik": 2048,
      "Ġnational": 2049,
      "ĠCor": 2050,
      "Ġscored": 2051,
      "Ġworks": 2052,
      "Ġdiffic": 2053,
      "ĠKingdom": 2054,
      "Ġdifficult": 2055,
      "ĠHist": 2056,
      "ected": 2057,
      "Ġproduc": 2058,
      "Ġmeet": 2059,
      "Ġcompleted": 2060,
      "ĠIsland": 2061,
      "ĠAustralian": 2062,
      "Ġcampaign": 2063,
      "Ġtradition": 2064,
      "Ġannounced": 2065,
      "ĠSom": 2066,
      "ĠCal": 2067,
      "Ġrank": 2068,
      "ĠSec": 2069,
      "uck": 2070,
      "Ġstars": 2071,
      "Ġregion": 2072,
      "ator": 2073,
      "Ġfig": 2074,
      "Ġhold": 2075,
      "Ġrock": 2076,
      "Ġguns": 2077,
      "ĠCup": 2078,
      "ĠMor": 2079,
      "ĠCompany": 2080,
      "iers": 2081,
      "rie": 2082,
      "Ġprocess": 2083,
      "Ġlittle": 2084,
      "hem": 2085,
      "Ġfav": 2086,
      "Ġfight": 2087,
      "ĠRec": 2088,
      "Ġhighway": 2089,
      "Ġgoal": 2090,
      "Ġinstead": 2091,
      "Ġhelp": 2092,
      "Ġtre": 2093,
      "ivid": 2094,
      "irc": 2095,
      "Ġpred": 2096,
      "ĠCro": 2097,
      "Ġval": 2098,
      "Ġgrow": 2099,
      "Ġadded": 2100,
      "itted": 2101,
      "ament": 2102,
      "Ġgl": 2103,
      "rought": 2104,
      "Ġcross": 2105,
      "ĠOl": 2106,
      "Ġlet": 2107,
      "Ġleast": 2108,
      "Ġfollowed": 2109,
      "Ġfac": 2110,
      "Ġfront": 2111,
      "Ġredu": 2112,
      "ounc": 2113,
      "Ġ31": 2114,
      "Ġpeak": 2115,
      "Ġappeared": 2116,
      "Ġborn": 2117,
      "Ġrev": 2118,
      "quad": 2119,
      "ĠKe": 2120,
      "Ġknow": 2121,
      "Ġkilled": 2122,
      "leet": 2123,
      "Ġoriginally": 2124,
      "Ġmonths": 2125,
      "Ġer": 2126,
      "reg": 2127,
      "Ġwife": 2128,
      "Ġcomment": 2129,
      "elling": 2130,
      "ĠArmy": 2131,
      "Ġsouthern": 2132,
      "orse": 2133,
      "ĠDavid": 2134,
      "oice": 2135,
      "Ġcas": 2136,
      "Ġloss": 2137,
      "ĠBill": 2138,
      "ĠGrand": 2139,
      "Ġfif": 2140,
      "enced": 2141,
      "ality": 2142,
      "Ġhurricane": 2143,
      "enth": 2144,
      "Ġnuc": 2145,
      "ĠHam": 2146,
      "ries": 2147,
      "Ġwomen": 2148,
      "Ġassoci": 2149,
      "Ġident": 2150,
      "Ġeastern": 2151,
      "Ġagre": 2152,
      "ĠMusic": 2153,
      "bo": 2154,
      "Ġ29": 2155,
      "angu": 2156,
      "Ġrelationship": 2157,
      "Ã¡": 2158,
      "ÃŃ": 2159,
      "Ġmass": 2160,
      "Ġ2003": 2161,
      "Ġcritics": 2162,
      "off": 2163,
      "Ġmother": 2164,
      "ĠSome": 2165,
      "Ġaccom": 2166,
      "ĠFrance": 2167,
      "Ġeventually": 2168,
      "Ġaward": 2169,
      "ĠSup": 2170,
      "acy": 2171,
      "Ġ40": 2172,
      "Ġ185": 2173,
      "Ġfeatures": 2174,
      "gr": 2175,
      "Ġbus": 2176,
      "lect": 2177,
      "idd": 2178,
      "ĠOther": 2179,
      "Ġ2015": 2180,
      "field": 2181,
      "Ġlive": 2182,
      "Ġbroad": 2183,
      "com": 2184,
      "Ġaud": 2185,
      "Ġcond": 2186,
      "Ġanim": 2187,
      "Ġyoung": 2188,
      "ray": 2189,
      "Ġtaken": 2190,
      "Ġcell": 2191,
      "Ġstri": 2192,
      "app": 2193,
      "Ġroute": 2194,
      "Ġrecogn": 2195,
      "Ġappoin": 2196,
      "Ġfourth": 2197,
      "ĠTwo": 2198,
      "Ġserved": 2199,
      "here": 2200,
      "Ġbar": 2201,
      "ully": 2202,
      "ĠEx": 2203,
      "Äģ": 2204,
      "ota": 2205,
      "emy": 2206,
      "Ġestim": 2207,
      "Ġdamage": 2208,
      "Ġprofess": 2209,
      "Ġlack": 2210,
      "Ġheavy": 2211,
      "antry": 2212,
      "arliam": 2213,
      "ique": 2214,
      "inal": 2215,
      "Ġsw": 2216,
      "Ġbase": 2217,
      "Ġeither": 2218,
      "Ġsex": 2219,
      "Ġdecided": 2220,
      "ĠBattalion": 2221,
      "Ġaver": 2222,
      "osaur": 2223,
      "ĠLove": 2224,
      "Ġproble": 2225,
      "Ġvoc": 2226,
      "ĠSw": 2227,
      "olution": 2228,
      "Ġcondom": 2229,
      "Ġcommer": 2230,
      "Ġbehind": 2231,
      "Ġtoget": 2232,
      "aper": 2233,
      "azine": 2234,
      "Ġbelieved": 2235,
      "Ġtogether": 2236,
      "Ġmor": 2237,
      "Ġsepar": 2238,
      "ĠRobert": 2239,
      "chie": 2240,
      "Ġsuper": 2241,
      "Ġarg": 2242,
      "ille": 2243,
      "ĠGod": 2244,
      "ought": 2245,
      "Ġplaying": 2246,
      "ountain": 2247,
      "Ġindivid": 2248,
      "ĠCarey": 2249,
      "arliament": 2250,
      "Ġve": 2251,
      "Ġimpro": 2252,
      "igned": 2253,
      "ization": 2254,
      "lo": 2255,
      "Ġcreat": 2256,
      "Ġexample": 2257,
      "Ġspecial": 2258,
      "ĠRoyal": 2259,
      "ouncil": 2260,
      "ĠMon": 2261,
      "Ġalmost": 2262,
      "Ġclos": 2263,
      "Ġclose": 2264,
      "Ġ188": 2265,
      "Ġmove": 2266,
      "Ġaccept": 2267,
      "ements": 2268,
      "Ġquar": 2269,
      "Ġleading": 2270,
      "hys": 2271,
      "ĠMex": 2272,
      "ĠEuropean": 2273,
      "cial": 2274,
      "mar": 2275,
      "Ġburn": 2276,
      "Ġlangu": 2277,
      "Ġask": 2278,
      "Ġgenerally": 2279,
      "Ġservice": 2280,
      "ĠFederer": 2281,
      "Ġtowards": 2282,
      "Ġmater": 2283,
      "Ġround": 2284,
      "aching": 2285,
      "Ġelements": 2286,
      "Ġopened": 2287,
      "Ġfall": 2288,
      "Ġhy": 2289,
      "Ġarm": 2290,
      "Ġsour": 2291,
      "Ġbrought": 2292,
      "Ġdou": 2293,
      "ĠSer": 2294,
      "urb": 2295,
      "ĠBer": 2296,
      "ĠBrigade": 2297,
      "Ġweeks": 2298,
      "Ġmiss": 2299,
      "Ġnon": 2300,
      "ĠInternational": 2301,
      "Ġfinished": 2302,
      "iction": 2303,
      "Ġce": 2304,
      "Ġcirc": 2305,
      "ĠCr": 2306,
      "ĠIr": 2307,
      "ĠWales": 2308,
      "Ġra": 2309,
      "illa": 2310,
      "rict": 2311,
      "Ġlaun": 2312,
      "Ġsaw": 2313,
      "icated": 2314,
      "ceed": 2315,
      "Ġstudy": 2316,
      "Ġfeatured": 2317,
      "Ġhost": 2318,
      "ĠViet": 2319,
      "Ġrespect": 2320,
      "Ġaircraft": 2321,
      "iation": 2322,
      "Ġregular": 2323,
      "ĠFlor": 2324,
      "Ġdraw": 2325,
      "ida": 2326,
      "Ġenc": 2327,
      "iron": 2328,
      "ests": 2329,
      "Ġvol": 2330,
      "ĠWhite": 2331,
      "Ġgeneral": 2332,
      "Ġpoints": 2333,
      "ned": 2334,
      "read": 2335,
      "Ġrese": 2336,
      "ston": 2337,
      "ĠHen": 2338,
      "etwork": 2339,
      "ĠPart": 2340,
      "ways": 2341,
      "Ġelect": 2342,
      "Ġdirected": 2343,
      "uter": 2344,
      "ze": 2345,
      "ounted": 2346,
      "ĠChampionship": 2347,
      "Ġcentral": 2348,
      "Ġprovided": 2349,
      "hic": 2350,
      "Ġaction": 2351,
      "ordan": 2352,
      "Ġmeas": 2353,
      "val": 2354,
      "Ġfund": 2355,
      "Ġinform": 2356,
      "ĠAct": 2357,
      "ĠSy": 2358,
      "ĠHar": 2359,
      "Ġ35": 2360,
      "Ġupon": 2361,
      "ĠPlay": 2362,
      "Ġdirector": 2363,
      "ography": 2364,
      "iol": 2365,
      "Ġwall": 2366,
      "ĠGame": 2367,
      "Ġmean": 2368,
      "Ġappearance": 2369,
      "eum": 2370,
      "Ġwid": 2371,
      "ĠFollow": 2372,
      "ĠJordan": 2373,
      "umb": 2374,
      "ĠEast": 2375,
      "Ġ186": 2376,
      "Ġcoll": 2377,
      "Ġearlier": 2378,
      "Ġmi": 2379,
      "ĠFrom": 2380,
      "odes": 2381,
      "Ġyard": 2382,
      "ĠThom": 2383,
      "ency": 2384,
      "ĠPres": 2385,
      "Ġsequ": 2386,
      "Ġrather": 2387,
      "Ġking": 2388,
      "Ġ2014": 2389,
      "Ġflood": 2390,
      "Ġfemale": 2391,
      "ĠAtlantic": 2392,
      "bit": 2393,
      "ino": 2394,
      "irl": 2395,
      "Ġindust": 2396,
      "medi": 2397,
      "Ġcurrent": 2398,
      "Ġtroops": 2399,
      "Ġlargest": 2400,
      "Ġvictory": 2401,
      "ĠFollowing": 2402,
      "oring": 2403,
      "Ġren": 2404,
      "Ġreve": 2405,
      "ĠJew": 2406,
      "Ġdev": 2407,
      "Ġsubsequ": 2408,
      "Ġemploy": 2409,
      "Ġoperations": 2410,
      "ĠChristian": 2411,
      "Ġparticularly": 2412,
      "ĠGeorge": 2413,
      "Ġmanager": 2414,
      "ming": 2415,
      "Ġachie": 2416,
      "Ġcost": 2417,
      "ĠMad": 2418,
      "ĠHouse": 2419,
      "ĠDay": 2420,
      "ĠHero": 2421,
      "cher": 2422,
      "oid": 2423,
      "ĠMary": 2424,
      "ude": 2425,
      "ĠRep": 2426,
      "Ġopening": 2427,
      "Ġwanted": 2428,
      "stit": 2429,
      "Ġbeg": 2430,
      "ĠDu": 2431,
      "Ġcondu": 2432,
      "mb": 2433,
      "eler": 2434,
      "ĠRed": 2435,
      "orts": 2436,
      "Ġyards": 2437,
      "Ġevidence": 2438,
      "iber": 2439,
      "Ġcut": 2440,
      "Ġreason": 2441,
      "ouri": 2442,
      "Ġriver": 2443,
      "Ġprob": 2444,
      "Ġexc": 2445,
      "ounter": 2446,
      "ĠCommand": 2447,
      "Ġnorthern": 2448,
      "ĠFlorida": 2449,
      "Ġmember": 2450,
      "Ġstage": 2451,
      "Ġinsp": 2452,
      "cast": 2453,
      "Ġleng": 2454,
      "ĠRock": 2455,
      "ĠStreet": 2456,
      "Ġ500": 2457,
      "Ġoutside": 2458,
      "Ġcrew": 2459,
      "Ġallowed": 2460,
      "Ġpossible": 2461,
      "Ġengine": 2462,
      "oo": 2463,
      "Ġfoc": 2464,
      "Ġbi": 2465,
      "Ġstren": 2466,
      "action": 2467,
      "Ġsaying": 2468,
      "sel": 2469,
      "Ġill": 2470,
      "ĠMed": 2471,
      "ellow": 2472,
      "ĠOliv": 2473,
      "cript": 2474,
      "erous": 2475,
      "atural": 2476,
      "ania": 2477,
      "Ġhit": 2478,
      "Ġhours": 2479,
      "Ġwhom": 2480,
      "west": 2481,
      "Ġcase": 2482,
      "anch": 2483,
      "ential": 2484,
      "Ġnomin": 2485,
      "conom": 2486,
      "ators": 2487,
      "Ġfort": 2488,
      "Ġdeter": 2489,
      "Ġexist": 2490,
      "Ġ2001": 2491,
      "Ġworked": 2492,
      "Ġregard": 2493,
      "ĠMissouri": 2494,
      "alt": 2495,
      "ĠMost": 2496,
      "ĠOd": 2497,
      "Ġpract": 2498,
      "Ġstreng": 2499,
      "eal": 2500,
      "atin": 2501,
      "Ġmot": 2502,
      "ama": 2503,
      "ĠBra": 2504,
      "Ġworking": 2505,
      "Ġterrit": 2506,
      "Ġrespons": 2507,
      "Ġlength": 2508,
      "cent": 2509,
      "nder": 2510,
      "ĠMy": 2511,
      "Ġnews": 2512,
      "Ġreb": 2513,
      "osition": 2514,
      "ĠGal": 2515,
      "artment": 2516,
      "Ġdefend": 2517,
      "board": 2518,
      "Ġmaterial": 2519,
      "ata": 2520,
      "Ġbur": 2521,
      "Ġmach": 2522,
      "Ġgold": 2523,
      "Ġpoor": 2524,
      "Ġdesigned": 2525,
      "Ġfree": 2526,
      "Ġlove": 2527,
      "ĠBay": 2528,
      "ĠPaul": 2529,
      "Ġseem": 2530,
      "ump": 2531,
      "Ġrul": 2532,
      "Ġneg": 2533,
      "ĠTech": 2534,
      "thod": 2535,
      "Ġstay": 2536,
      "ĠWal": 2537,
      "anding": 2538,
      "Ġpraised": 2539,
      "uel": 2540,
      "ĠCo": 2541,
      "ĠMark": 2542,
      "Ġforced": 2543,
      "ĠFirst": 2544,
      "ights": 2545,
      "ishing": 2546,
      "Ġremains": 2547,
      "ĠIndian": 2548,
      "Ġavail": 2549,
      "Ġfootball": 2550,
      "ores": 2551,
      "ĠBest": 2552,
      "Ġ187": 2553,
      "Ġ1970": 2554,
      "ĠPhil": 2555,
      "Ġbill": 2556,
      "ana": 2557,
      "Ġthink": 2558,
      "Ġstation": 2559,
      "Ġwinds": 2560,
      "ĠMichael": 2561,
      "less": 2562,
      "Ġtreat": 2563,
      "Ġcop": 2564,
      "ĠWil": 2565,
      "Ġquick": 2566,
      "Ġgoals": 2567,
      "Ġincreased": 2568,
      "Ġcontract": 2569,
      "heast": 2570,
      "ened": 2571,
      "Ġpast": 2572,
      "Ġdi": 2573,
      "aps": 2574,
      "Ġpreviously": 2575,
      "ĠÂ£": 2576,
      "ius": 2577,
      "vest": 2578,
      "ica": 2579,
      "Ġgre": 2580,
      "ago": 2581,
      "ĠEgy": 2582,
      "Ġabove": 2583,
      "Ġreplaced": 2584,
      "ĠEgypt": 2585,
      "gg": 2586,
      "ule": 2587,
      "xas": 2588,
      "ĠCap": 2589,
      "ĠBut": 2590,
      "vert": 2591,
      "Ġsoon": 2592,
      "Ġinvest": 2593,
      "ĠRichard": 2594,
      "Ġcivil": 2595,
      "Ġly": 2596,
      "ĠBus": 2597,
      "Ġviol": 2598,
      "ĠDespite": 2599,
      "Ġbusiness": 2600,
      "Ġhon": 2601,
      "Ġinterview": 2602,
      "Ġmer": 2603,
      "Ġthreat": 2604,
      "ession": 2605,
      "Ġ2000": 2606,
      "ributed": 2607,
      "Ġwriter": 2608,
      "ĠÂ°": 2609,
      "Ġcommercial": 2610,
      "ĠHenry": 2611,
      "erved": 2612,
      "asion": 2613,
      "Ġmph": 2614,
      "irth": 2615,
      "ĠHill": 2616,
      "Ġunits": 2617,
      "hens": 2618,
      "ĠCanada": 2619,
      "Ġestimated": 2620,
      "Ġclear": 2621,
      "ara": 2622,
      "ĠSan": 2623,
      "Ġ1990": 2624,
      "Ġaccount": 2625,
      "anned": 2626,
      "ĠQue": 2627,
      "Ġesc": 2628,
      "Ġquarter": 2629,
      "Ġsomet": 2630,
      "Ġpain": 2631,
      "ĠKh": 2632,
      "Ġclaimed": 2633,
      "Ġjoined": 2634,
      "ĠJapanese": 2635,
      "Ġhighest": 2636,
      "uation": 2637,
      "Ġtrib": 2638,
      "utive": 2639,
      "Ġplaced": 2640,
      "Ġspecific": 2641,
      "Ġsurf": 2642,
      "ĠBrown": 2643,
      "ĠOldham": 2644,
      "Ġinvolved": 2645,
      "wh": 2646,
      "ye": 2647,
      "Ġz": 2648,
      "Ġmust": 2649,
      "ĠTimes": 2650,
      "Ġlo": 2651,
      "Ġsigned": 2652,
      "Ġdiscuss": 2653,
      "Ġsuggested": 2654,
      "ĠPresident": 2655,
      "ĠTor": 2656,
      "ĠVir": 2657,
      "Ġparts": 2658,
      "ĠDep": 2659,
      "Ġcourt": 2660,
      "Ġwestern": 2661,
      "oms": 2662,
      "ett": 2663,
      "Ġintens": 2664,
      "Ġ183": 2665,
      "ĠOlivier": 2666,
      "BC": 2667,
      "iter": 2668,
      "Ġproper": 2669,
      "Ġleague": 2670,
      "clus": 2671,
      "Ġitself": 2672,
      "Ġpriv": 2673,
      "ĠCarol": 2674,
      "ĠVietn": 2675,
      "lic": 2676,
      "Ġpers": 2677,
      "ĠDr": 2678,
      "ĠWhe": 2679,
      "ĠLater": 2680,
      "istic": 2681,
      "wood": 2682,
      "Ġobject": 2683,
      "ĠIndia": 2684,
      "Ġaverage": 2685,
      "ĠMexico": 2686,
      "tt": 2687,
      "Ġtaking": 2688,
      "thlet": 2689,
      "Ġchange": 2690,
      "Ġshot": 2691,
      "ĠArab": 2692,
      "Ġavailable": 2693,
      "ington": 2694,
      "ĠSchool": 2695,
      "olic": 2696,
      "osing": 2697,
      "ĠGovern": 2698,
      "Ġcome": 2699,
      "Ġscene": 2700,
      "ĠMcC": 2701,
      "Ġintroduced": 2702,
      "Ġcycl": 2703,
      "ving": 2704,
      "Ġfly": 2705,
      "ĠIm": 2706,
      "Ġwhose": 2707,
      "Ġrecording": 2708,
      "Ġtransport": 2709,
      "Ġterm": 2710,
      "Ġvillage": 2711,
      "now": 2712,
      "ita": 2713,
      "Ġinj": 2714,
      "Ġhous": 2715,
      "ĠCong": 2716,
      "achel": 2717,
      "Ġheav": 2718,
      "ĠVal": 2719,
      "Ġtransfer": 2720,
      "Ġbrother": 2721,
      "ĠThomas": 2722,
      "bor": 2723,
      "nes": 2724,
      "ximately": 2725,
      "ĠHall": 2726,
      "ĠVar": 2727,
      "Ġreligious": 2728,
      "ĠIrish": 2729,
      "ready": 2730,
      "Ġpen": 2731,
      "lected": 2732,
      "Ġrace": 2733,
      "quar": 2734,
      "ibility": 2735,
      "Ġbreak": 2736,
      "porary": 2737,
      "Ġtravel": 2738,
      "AF": 2739,
      "band": 2740,
      "onst": 2741,
      "Ġslow": 2742,
      "Ġtold": 2743,
      "Ġdon": 2744,
      "Ġnetwork": 2745,
      "acing": 2746,
      "ĠPac": 2747,
      "Ġ36": 2748,
      "ĠBritain": 2749,
      "Ġshows": 2750,
      "Ġ1960": 2751,
      "Ġdamaged": 2752,
      "rated": 2753,
      "Ġ-": 2754,
      "Ġnames": 2755,
      "ĠCard": 2756,
      "Ġstop": 2757,
      "ĠHel": 2758,
      "Ġrail": 2759,
      "pected": 2760,
      "Ġexec": 2761,
      "abit": 2762,
      "Ġremov": 2763,
      "Ġincreasing": 2764,
      "Ġturned": 2765,
      "ĠRepublic": 2766,
      "Ġmult": 2767,
      "Ġlines": 2768,
      "Ġgive": 2769,
      "ĠHurricane": 2770,
      "ĠThat": 2771,
      "Ġsubject": 2772,
      "Ġnine": 2773,
      "ĠMany": 2774,
      "ĠGreat": 2775,
      "Ġdespite": 2776,
      "ĠScient": 2777,
      "Ġnearly": 2778,
      "ĠGuitar": 2779,
      "Ġappointed": 2780,
      "Ġsize": 2781,
      "Ġpie": 2782,
      "ĠSm": 2783,
      "ĠNot": 2784,
      "oney": 2785,
      "Ġfeel": 2786,
      "Ġcomplet": 2787,
      "ĠZeal": 2788,
      "Ġcommunity": 2789,
      "Ġstructure": 2790,
      "ĠZealand": 2791,
      "Ġ?": 2792,
      "Ġop": 2793,
      "Ġphys": 2794,
      "Ġdate": 2795,
      "Ġhard": 2796,
      "ĠSun": 2797,
      "Ġeconom": 2798,
      "elled": 2799,
      "Ġdiss": 2800,
      "Ġindepend": 2801,
      "Ġsurround": 2802,
      "Ġpassed": 2803,
      "Ġeduc": 2804,
      "ault": 2805,
      "Ġinternational": 2806,
      "Ġpur": 2807,
      "ĠMac": 2808,
      "iding": 2809,
      "ĠNY": 2810,
      "ĠGold": 2811,
      "ruction": 2812,
      "ĠUnion": 2813,
      "ronic": 2814,
      "Ġestablish": 2815,
      "Ġliter": 2816,
      "Ġinitially": 2817,
      "pecially": 2818,
      "Ġcertain": 2819,
      "head": 2820,
      "Ġwithd": 2821,
      "Ġalready": 2822,
      "Ġ184": 2823,
      "Ġimmedi": 2824,
      "Ġgrad": 2825,
      "Ġgoing": 2826,
      "Ġsocial": 2827,
      "Ġfailed": 2828,
      "Ġmight": 2829,
      "ĠAc": 2830,
      "ĠRou": 2831,
      "ume": 2832,
      "Ġdeal": 2833,
      "Ġrap": 2834,
      "Ġchap": 2835,
      "ĠChines": 2836,
      "Ġdisplay": 2837,
      "Ġ60": 2838,
      "Ġassist": 2839,
      "anna": 2840,
      "Ġwinning": 2841,
      "Ġarchae": 2842,
      "ĠEarly": 2843,
      "ĠChinese": 2844,
      "Ġstates": 2845,
      "ĠEver": 2846,
      "Ġtraining": 2847,
      "hedral": 2848,
      "Ġ45": 2849,
      "Ġscore": 2850,
      "Ġaccording": 2851,
      "Ġcapital": 2852,
      "Ġoccup": 2853,
      "Ġtype": 2854,
      "Ġespecially": 2855,
      "Ġlanguage": 2856,
      "Ġprobably": 2857,
      "ĠPacific": 2858,
      "Ġfood": 2859,
      "arily": 2860,
      "Ġdoc": 2861,
      "ĠMont": 2862,
      "ĠEm": 2863,
      "iff": 2864,
      "Ġ2002": 2865,
      "Ġminor": 2866,
      "ĠColle": 2867,
      "Ġissue": 2868,
      "Ġdebut": 2869,
      "Ġforest": 2870,
      "for": 2871,
      "Ġtest": 2872,
      "Ġwood": 2873,
      "Ġfut": 2874,
      "aled": 2875,
      "Ġmale": 2876,
      "Ġdaugh": 2877,
      "urt": 2878,
      "ĠPre": 2879,
      "Ġstudio": 2880,
      "ĠIII": 2881,
      "ties": 2882,
      "Ġtow": 2883,
      "ĠMos": 2884,
      "Ġconn": 2885,
      "ĠOs": 2886,
      "Ġincludes": 2887,
      "Ġspent": 2888,
      "Ġarrived": 2889,
      "Ġordered": 2890,
      "ĠHistory": 2891,
      "ĠWheeler": 2892,
      "ĠÃ": 2893,
      "ĠAg": 2894,
      "ĠAwards": 2895,
      "ĠSl": 2896,
      "ĠFilm": 2897,
      "ĠJin": 2898,
      "Ġarmy": 2899,
      "Ġenough": 2900,
      "Ġremaining": 2901,
      "Ġparticip": 2902,
      "Ġvisit": 2903,
      "ĠCanadian": 2904,
      "onse": 2905,
      "Ġfail": 2906,
      "Ġmem": 2907,
      "ĠCath": 2908,
      "Ġforward": 2909,
      "ĠNavy": 2910,
      "odies": 2911,
      "Ġmixed": 2912,
      "Ġsometimes": 2913,
      "atory": 2914,
      "Ġcru": 2915,
      "ula": 2916,
      "ĠUK": 2917,
      "Ġcomplete": 2918,
      "Ġapproximately": 2919,
      "Ġreviews": 2920,
      "Ġrequired": 2921,
      "ĠPeter": 2922,
      "fect": 2923,
      "nel": 2924,
      "aries": 2925,
      "Ġpot": 2926,
      "Ġlatter": 2927,
      "ĠCreek": 2928,
      "ays": 2929,
      "ĠRes": 2930,
      "ulated": 2931,
      "ilities": 2932,
      "ĠSing": 2933,
      "ĠRose": 2934,
      "ĠDon": 2935,
      "Ġrain": 2936,
      "Ġabs": 2937,
      "Ġcenter": 2938,
      "Ġremain": 2939,
      "ference": 2940,
      "ĠAssoci": 2941,
      "ĠAfrica": 2942,
      "Ġbeginning": 2943,
      "hib": 2944,
      "ulf": 2945,
      "ĠLaw": 2946,
      "Ġblock": 2947,
      "ĠAngel": 2948,
      "eth": 2949,
      "tation": 2950,
      "Ġlower": 2951,
      "ateg": 2952,
      "Ġdecision": 2953,
      "Ġanti": 2954,
      "Ġlimited": 2955,
      "enes": 2956,
      "Ġdro": 2957,
      "ste": 2958,
      "chol": 2959,
      "Ġusually": 2960,
      "ĠArt": 2961,
      "Ġadditional": 2962,
      "Ġchanges": 2963,
      "ĠRegiment": 2964,
      "ites": 2965,
      "Ġden": 2966,
      "ĠMo": 2967,
      "ĠRachel": 2968,
      "ĠJer": 2969,
      "rian": 2970,
      "Ġjourn": 2971,
      "Ġbetter": 2972,
      "Ġindic": 2973,
      "Ġpresident": 2974,
      "Ġrunning": 2975,
      "Ġresponse": 2976,
      "ĠVirgin": 2977,
      "itz": 2978,
      "ĠSoc": 2979,
      "Ġkey": 2980,
      "Ġpositive": 2981,
      "Ġended": 2982,
      "Ġlarger": 2983,
      "Ġstudents": 2984,
      "ĠSuper": 2985,
      "Ġwoman": 2986,
      "Ġmention": 2987,
      "ĠNort": 2988,
      "Ġdead": 2989,
      "Ġsupported": 2990,
      "Ġmagazine": 2991,
      "quadron": 2992,
      "Ġtouch": 2993,
      "ĠAward": 2994,
      "lymp": 2995,
      "ĠPenn": 2996,
      "ĠOlymp": 2997,
      "Ġnotes": 2998,
      "ĠStud": 2999,
      "rics": 3000,
      "ĠScott": 3001,
      "Ġpolice": 3002,
      "Ġdepression": 3003,
      "Ġpressure": 3004,
      "Ġwide": 3005,
      "Ġcal": 3006,
      "aval": 3007,
      "ĠVer": 3008,
      "Ġpoet": 3009,
      "ĠCharles": 3010,
      "Ġbirds": 3011,
      "gl": 3012,
      "tr": 3013,
      "edy": 3014,
      "enty": 3015,
      "Ġshown": 3016,
      "Ġ1995": 3017,
      "Ġquest": 3018,
      "Ġprevent": 3019,
      "ĠBillboard": 3020,
      "ases": 3021,
      "aph": 3022,
      "aker": 3023,
      "Ġspace": 3024,
      "Ġrelated": 3025,
      "Ġfuture": 3026,
      "back": 3027,
      "Ġ38": 3028,
      "Ġ1980": 3029,
      "Ġprovide": 3030,
      "Ġdefeated": 3031,
      "Ġfifth": 3032,
      "go": 3033,
      "rd": 3034,
      "uf": 3035,
      "Ġface": 3036,
      "arm": 3037,
      "Ġhom": 3038,
      "ĠTV": 3039,
      "ĠTom": 3040,
      "stant": 3041,
      "ĠPri": 3042,
      "uments": 3043,
      "Ġdiscovered": 3044,
      "ih": 3045,
      "leg": 3046,
      "ĠTer": 3047,
      "owl": 3048,
      "Ġstaff": 3049,
      "ĠFort": 3050,
      "Ġsyn": 3051,
      "Ġfeature": 3052,
      "Ġtemper": 3053,
      "ĠRoute": 3054,
      "men": 3055,
      "ss": 3056,
      "Ġanc": 3057,
      "Ġ80": 3058,
      "Ġprior": 3059,
      "Ġbecoming": 3060,
      "co": 3061,
      "uals": 3062,
      "Ġaut": 3063,
      "Ġbirth": 3064,
      "Ġdoll": 3065,
      "ids": 3066,
      "irt": 3067,
      "ands": 3068,
      "ifa": 3069,
      "mitted": 3070,
      "Ġcm": 3071,
      "ĠWestern": 3072,
      "Ġsection": 3073,
      "ĠOff": 3074,
      "riage": 3075,
      "Ġexam": 3076,
      "Ġsmaller": 3077,
      "Ġfrequ": 3078,
      "gely": 3079,
      "inct": 3080,
      "onc": 3081,
      "Ġintended": 3082,
      "ĠApp": 3083,
      "idents": 3084,
      "bert": 3085,
      "aby": 3086,
      "Ġscreen": 3087,
      "Ġdisp": 3088,
      "Ġgroups": 3089,
      "Ġidea": 3090,
      "ĠScientology": 3091,
      "aring": 3092,
      "Ġconclud": 3093,
      "ĠInf": 3094,
      "ishop": 3095,
      "Ġpercent": 3096,
      "Ġthemsel": 3097,
      "Ġmostly": 3098,
      "ĠFrank": 3099,
      "Ġmetres": 3100,
      "ĠHaifa": 3101,
      "stein": 3102,
      "Ġthemselves": 3103,
      "aut": 3104,
      "ney": 3105,
      "orial": 3106,
      "Ġfleet": 3107,
      "anies": 3108,
      "ĠTur": 3109,
      "ĠHot": 3110,
      "agon": 3111,
      "quare": 3112,
      "ĠStar": 3113,
      "Ġ2016": 3114,
      "ĠYear": 3115,
      "Ġminutes": 3116,
      "Ġcaptured": 3117,
      "Ġreferred": 3118,
      "Ġlikely": 3119,
      "Ġresearch": 3120,
      "Ġsurface": 3121,
      "Ġword": 3122,
      "Ġfir": 3123,
      "enon": 3124,
      "Ġdomin": 3125,
      "ĠSince": 3126,
      "ching": 3127,
      "ĠLa": 3128,
      "iforn": 3129,
      "Ġoffice": 3130,
      "Ġlargely": 3131,
      "Ġmusical": 3132,
      "rief": 3133,
      "ĠCroat": 3134,
      "Ġprofessional": 3135,
      "Ġproblems": 3136,
      "ĠAssociation": 3137,
      "down": 3138,
      "Ġflow": 3139,
      "ĠParliament": 3140,
      "ĠFI": 3141,
      "ĠLight": 3142,
      "rael": 3143,
      "Ġ75": 3144,
      "Ġentered": 3145,
      "Ġmedia": 3146,
      "ee": 3147,
      "gar": 3148,
      "Ġsem": 3149,
      "Ġmakes": 3150,
      "Ġcontem": 3151,
      "Ġmoving": 3152,
      "Ġamount": 3153,
      "Ġbroadcast": 3154,
      "ners": 3155,
      "Ġcer": 3156,
      "Ġder": 3157,
      "ĠSov": 3158,
      "omm": 3159,
      "Ġlearn": 3160,
      "Ġcontains": 3161,
      "Ġemb": 3162,
      "Ġconstructed": 3163,
      "ĠPortug": 3164,
      "Ġradio": 3165,
      "quarters": 3166,
      "gu": 3167,
      "uk": 3168,
      "Ã³": 3169,
      "oul": 3170,
      "Ġlink": 3171,
      "ĠOper": 3172,
      "sec": 3173,
      "Ġens": 3174,
      "Ġ1999": 3175,
      "Ġkeep": 3176,
      "Ġsummer": 3177,
      "ĠCaliforn": 3178,
      "bers": 3179,
      "ises": 3180,
      "Ġpair": 3181,
      "Ġmoney": 3182,
      "acted": 3183,
      "ĠRuss": 3184,
      "ĠJe": 3185,
      "pped": 3186,
      "ples": 3187,
      "Ġguitar": 3188,
      "Ġeffects": 3189,
      "Ġcele": 3190,
      "ios": 3191,
      "to": 3192,
      "ville": 3193,
      "ergy": 3194,
      "itte": 3195,
      "isions": 3196,
      "anish": 3197,
      "Ġnature": 3198,
      "ĠCouncil": 3199,
      "Ġstories": 3200,
      "ĠHow": 3201,
      "cean": 3202,
      "Ġsea": 3203,
      "Ġvoice": 3204,
      "Ġgrant": 3205,
      "ĠIsrael": 3206,
      "Ġ1950": 3207,
      "Ġmajority": 3208,
      "Ġlisted": 3209,
      "Ġobserv": 3210,
      "ĠEarth": 3211,
      "Ġranked": 3212,
      "ĠJewish": 3213,
      "uz": 3214,
      "Ġself": 3215,
      "Ġparen": 3216,
      "Ġlay": 3217,
      "Ġadop": 3218,
      "Ġcreate": 3219,
      "Ġarrang": 3220,
      "Ġexperience": 3221,
      "ĠGalvest": 3222,
      "ĠGalveston": 3223,
      "den": 3224,
      "uing": 3225,
      "eding": 3226,
      "ĠMet": 3227,
      "ĠWood": 3228,
      "ĠOtt": 3229,
      "Ġleaving": 3230,
      "Ġcritical": 3231,
      "Ġthus": 3232,
      "ĠChic": 3233,
      "Ġprimary": 3234,
      "Ġfavor": 3235,
      "ires": 3236,
      "lor": 3237,
      "Ġschol": 3238,
      "Ġlived": 3239,
      "urity": 3240,
      "owler": 3241,
      "Ġalways": 3242,
      "ĠAnother": 3243,
      "Ġconsist": 3244,
      "Ġlocation": 3245,
      "ylv": 3246,
      "minist": 3247,
      "Ġgods": 3248,
      "Ġagreed": 3249,
      "Ġlyrics": 3250,
      "iest": 3251,
      "reak": 3252,
      "Ġbrief": 3253,
      "Ġpay": 3254,
      "Ġlab": 3255,
      "imate": 3256,
      "ĠFin": 3257,
      "ĠGo": 3258,
      "aven": 3259,
      "Ġrare": 3260,
      "teen": 3261,
      "Ġcompl": 3262,
      "Ġfilms": 3263,
      "Ġruns": 3264,
      "Ġofficers": 3265,
      "Ġcontroll": 3266,
      "Ġlaunched": 3267,
      "ĠCalifornia": 3268,
      "ping": 3269,
      "pool": 3270,
      "tar": 3271,
      "Ġcoin": 3272,
      "ĠServ": 3273,
      "ĠCamp": 3274,
      "ĠBey": 3275,
      "Ġcolon": 3276,
      "Ġsett": 3277,
      "Ġteams": 3278,
      "Ġculture": 3279,
      "Ġfriends": 3280,
      "osaurus": 3281,
      "Ġquickly": 3282,
      "ĠCatholic": 3283,
      "ĠHol": 3284,
      "change": 3285,
      "Ġmeant": 3286,
      "Ġepisodes": 3287,
      "ĠBrad": 3288,
      "Ġminute": 3289,
      "hester": 3290,
      "Ġproposed": 3291,
      "Ġoccurred": 3292,
      "oor": 3293,
      "pan": 3294,
      "ror": 3295,
      "ĠAle": 3296,
      "urg": 3297,
      "ĠIf": 3298,
      "arts": 3299,
      "ĠUp": 3300,
      "Ġwhether": 3301,
      "oke": 3302,
      "key": 3303,
      "Ġprem": 3304,
      "Ġattr": 3305,
      "Ġassigned": 3306,
      "Ġaccess": 3307,
      "Ġsettle": 3308,
      "Ġincrease": 3309,
      "Ġequip": 3310,
      "kan": 3311,
      "zy": 3312,
      "Ġsat": 3313,
      "atively": 3314,
      "Ġfans": 3315,
      "Ġpian": 3316,
      "ĠSaint": 3317,
      "Ġvot": 3318,
      "illery": 3319,
      "Ġtraff": 3320,
      "Ġadap": 3321,
      "Ġforms": 3322,
      "ification": 3323,
      "Ġappears": 3324,
      "Ġdefeat": 3325,
      "Ġchanged": 3326,
      "Ġdestroyed": 3327,
      "Ġtraffic": 3328,
      "Ġtons": 3329,
      "ĠMr": 3330,
      "imum": 3331,
      "ĠNic": 3332,
      "ĠNix": 3333,
      "ability": 3334,
      "Ġ400": 3335,
      "Ġscript": 3336,
      "Ġcommission": 3337,
      "Ġearth": 3338,
      "Ġlonger": 3339,
      "ospital": 3340,
      "ĠCentral": 3341,
      "Ġmeaning": 3342,
      "ĠChicago": 3343,
      "rup": 3344,
      "asy": 3345,
      "ĠRoss": 3346,
      "Ġjob": 3347,
      "Ġ70": 3348,
      "Ġtheme": 3349,
      "Ġnumbers": 3350,
      "Ġ1940": 3351,
      "Ġconcern": 3352,
      "ĠBattle": 3353,
      "Ġsoldiers": 3354,
      "Ġcompetition": 3355,
      "sis": 3356,
      "Ġmom": 3357,
      "Ġreach": 3358,
      "aded": 3359,
      "ĠHaw": 3360,
      "andon": 3361,
      "Ġleave": 3362,
      "Ġtrade": 3363,
      "ruit": 3364,
      "Ġbound": 3365,
      "ĠAlice": 3366,
      "vey": 3367,
      "Ġcarried": 3368,
      "onym": 3369,
      "Ġawarded": 3370,
      "Ġfocus": 3371,
      "ĠNorthern": 3372,
      "Ġcelebr": 3373,
      "Ġhop": 3374,
      "Ġgirl": 3375,
      "ĠLatin": 3376,
      "undred": 3377,
      "Ġ33": 3378,
      "Ġ1998": 3379,
      "ĠEnter": 3380,
      "ĠQu": 3381,
      "Ġconducted": 3382,
      "Ġprivate": 3383,
      "Ġdaughter": 3384,
      "Ġsil": 3385,
      "Ġcred": 3386,
      "Ġnatural": 3387,
      "ĠLou": 3388,
      "Ġdeep": 3389,
      "ĠOver": 3390,
      "bery": 3391,
      "Ġrecords": 3392,
      "Ġunderst": 3393,
      "Ġsubsequently": 3394,
      "Ġnewsp": 3395,
      "Ġcause": 3396,
      "Ġtourn": 3397,
      "ĠMey": 3398,
      "Ġanaly": 3399,
      "Ġran": 3400,
      "ortun": 3401,
      "Ġplans": 3402,
      "Ġ300": 3403,
      "Ġunc": 3404,
      "ĠVilla": 3405,
      "ĠScot": 3406,
      "Ġconsider": 3407,
      "Ġ1930": 3408,
      "Ġfighting": 3409,
      "oir": 3410,
      "Ġtakes": 3411,
      "itect": 3412,
      "Ġbord": 3413,
      "ari": 3414,
      "Ġded": 3415,
      "ĠMer": 3416,
      "iva": 3417,
      "ĠDj": 3418,
      "Ġshoot": 3419,
      "ĠAlkan": 3420,
      "Ġoverall": 3421,
      "Ġ1993": 3422,
      "Ġinfluence": 3423,
      "ĠPolish": 3424,
      "ĠSecond": 3425,
      "Ġcommented": 3426,
      "Ġindustry": 3427,
      "Ġ+": 3428,
      "Ġcle": 3429,
      "Ġbomb": 3430,
      "ĠMa": 3431,
      "usband": 3432,
      "ĠPat": 3433,
      "ĠFore": 3434,
      "ĠLiver": 3435,
      "ruct": 3436,
      "ĠItal": 3437,
      "Ġserious": 3438,
      "Ġfinally": 3439,
      "Ġelection": 3440,
      "Ġbring": 3441,
      "Ġconcert": 3442,
      "Ġasked": 3443,
      "ĠNixon": 3444,
      "ĠLiverpool": 3445,
      "tained": 3446,
      "ĠTay": 3447,
      "Ġemer": 3448,
      "ĠForm": 3449,
      "Ġdeg": 3450,
      "Ġkil": 3451,
      "Ġ32": 3452,
      "Ġcompared": 3453,
      "Ġwhole": 3454,
      "Ġimm": 3455,
      "Ġmethod": 3456,
      "Ġending": 3457,
      "Ġgreater": 3458,
      "hou": 3459,
      "oly": 3460,
      "sen": 3461,
      "Ġdone": 3462,
      "ĠBC": 3463,
      "ĠGro": 3464,
      "Ġunable": 3465,
      "ĠIts": 3466,
      "ĠSever": 3467,
      "ĠTexas": 3468,
      "ĠChristm": 3469,
      "Ġmarried": 3470,
      "Ġpositions": 3471,
      "Ġdouble": 3472,
      "stitute": 3473,
      "well": 3474,
      "inent": 3475,
      "Ġour": 3476,
      "Ġinn": 3477,
      "anced": 3478,
      "ĠTre": 3479,
      "ĠTour": 3480,
      "aches": 3481,
      "ĠLady": 3482,
      "erset": 3483,
      "Ġupper": 3484,
      "Ġcann": 3485,
      "Ġbuildings": 3486,
      "ĠSomerset": 3487,
      "gian": 3488,
      "Ġtar": 3489,
      "Ġsus": 3490,
      "Ġche": 3491,
      "Ġdram": 3492,
      "ĠTropical": 3493,
      "Ġthick": 3494,
      "ĠMart": 3495,
      "Ġgot": 3496,
      "umn": 3497,
      "ills": 3498,
      "Ġyet": 3499,
      "Ġcentre": 3500,
      "Ġearned": 3501,
      "Ġflight": 3502,
      "anks": 3503,
      "ĠMosley": 3504,
      "unt": 3505,
      "Ġcounter": 3506,
      "Ġbig": 3507,
      "Ġliving": 3508,
      "ĠCour": 3509,
      "ĠMil": 3510,
      "ĠThree": 3511,
      "Ġparty": 3512,
      "Ġenv": 3513,
      "aily": 3514,
      "Ġ1996": 3515,
      "Ġ90": 3516,
      "Ġacqu": 3517,
      "Ġpersonal": 3518,
      "Ġstandard": 3519,
      "Ġissued": 3520,
      "Ġnucle": 3521,
      "Ġbegins": 3522,
      "ĠBusch": 3523,
      "Ġrapid": 3524,
      "gen": 3525,
      "Ġpurch": 3526,
      "ĠTenn": 3527,
      "Ġthrow": 3528,
      "Ġlog": 3529,
      "ĠMount": 3530,
      "Ġkind": 3531,
      "ĠStr": 3532,
      "Ġbox": 3533,
      "Ġterms": 3534,
      "Ġdirectly": 3535,
      "Ġmarked": 3536,
      "Ġmarket": 3537,
      "ittee": 3538,
      "dle": 3539,
      "Ġult": 3540,
      "ĠSk": 3541,
      "amer": 3542,
      "ĠBel": 3543,
      "ulted": 3544,
      "ĠLake": 3545,
      "Ġhero": 3546,
      "Ġhealth": 3547,
      "Ġscenes": 3548,
      "ails": 3549,
      "Ġmovement": 3550,
      "Ġbooks": 3551,
      "Ġmarriage": 3552,
      "ĠSpanish": 3553,
      "Ġstatus": 3554,
      "ĠTaylor": 3555,
      "ĠChristmas": 3556,
      "Ġdom": 3557,
      "ĠBack": 3558,
      "ĠFowler": 3559,
      "Ġconcept": 3560,
      "Ġhelped": 3561,
      "Ġportray": 3562,
      "Ġslight": 3563,
      "ĠSeveral": 3564,
      "Ġund": 3565,
      "Ġtell": 3566,
      "Ġbatter": 3567,
      "ĠJo": 3568,
      "umed": 3569,
      "istics": 3570,
      "Ġplanned": 3571,
      "Ġsched": 3572,
      "Ġstarting": 3573,
      "Ġattacks": 3574,
      "Ġschools": 3575,
      "Ġexperi": 3576,
      "ĠAfrican": 3577,
      "Ġsuffered": 3578,
      "Ġtraditional": 3579,
      "Ġinformation": 3580,
      "Ġopt": 3581,
      "itor": 3582,
      "iser": 3583,
      "Ġdig": 3584,
      "Ġdark": 3585,
      "Ġgiving": 3586,
      "ĠPit": 3587,
      "alled": 3588,
      "ĠStorm": 3589,
      "Ġjud": 3590,
      "Ġspeed": 3591,
      "Ġperformances": 3592,
      "Ġfigure": 3593,
      "Ġassociated": 3594,
      "Ġinspired": 3595,
      "ĠInfantry": 3596,
      "AS": 3597,
      "ma": 3598,
      "Ġx": 3599,
      "itude": 3600,
      "Ġdivision": 3601,
      "Ġhusband": 3602,
      "ĠTw": 3603,
      "ĠSam": 3604,
      "ĠJane": 3605,
      "Ġclosed": 3606,
      "Ġabandon": 3607,
      "athan": 3608,
      "ĠArch": 3609,
      "Ġleaders": 3610,
      "embly": 3611,
      "Ġpresented": 3612,
      "Ġcondoms": 3613,
      "Ġsource": 3614,
      "ĠParty": 3615,
      "Ġmachine": 3616,
      "ĠSoviet": 3617,
      "awn": 3618,
      "Ġmur": 3619,
      "ĠFoot": 3620,
      "Ġvia": 3621,
      "Ġpresence": 3622,
      "Ġgreatest": 3623,
      "Ġinitial": 3624,
      "ĠSeries": 3625,
      "Ġraised": 3626,
      "Ġdetermin": 3627,
      "II": 3628,
      "iant": 3629,
      "mium": 3630,
      "Ġwound": 3631,
      "ĠCross": 3632,
      "ĠBob": 3633,
      "Ġexcept": 3634,
      "Ġunit": 3635,
      "Ġroom": 3636,
      "ĠVict": 3637,
      "Ġuses": 3638,
      "Ġwriters": 3639,
      "Ġcontinue": 3640,
      "Ġnearby": 3641,
      "aught": 3642,
      "ĠParis": 3643,
      "ĠCarolina": 3644,
      "Ġeducation": 3645,
      "Ġdocument": 3646,
      "ĠRosebery": 3647,
      "ĠVirginia": 3648,
      "Ã³n": 3649,
      "ylvania": 3650,
      "ks": 3651,
      "itation": 3652,
      "Ġnorm": 3653,
      "ĠBoy": 3654,
      "ĠLive": 3655,
      "Ġplot": 3656,
      "raf": 3657,
      "Ġuns": 3658,
      "Ġdism": 3659,
      "Ġimage": 3660,
      "iami": 3661,
      "Ġcollection": 3662,
      "Ġcovered": 3663,
      "Ġcyclone": 3664,
      "ĠPenns": 3665,
      "cing": 3666,
      "oration": 3667,
      "Ġhundred": 3668,
      "Ġrein": 3669,
      "olk": 3670,
      "ĠBen": 3671,
      "ĠJam": 3672,
      "ĠJust": 3673,
      "Ġchall": 3674,
      "Ġcomposed": 3675,
      "Ġweap": 3676,
      "ĠAnt": 3677,
      "Ġcomplex": 3678,
      "Ġannual": 3679,
      "Ġservices": 3680,
      "incip": 3681,
      "ĠQueen": 3682,
      "ĠCollege": 3683,
      "erve": 3684,
      "atre": 3685,
      "Ġbodies": 3686,
      "Ġreally": 3687,
      "ĠCer": 3688,
      "ĠRob": 3689,
      "eway": 3690,
      "Ġextended": 3691,
      "Ġ1997": 3692,
      "Ġnumerous": 3693,
      "Ġpolic": 3694,
      "Ġcommander": 3695,
      "Ġcathedral": 3696,
      "Ġproducer": 3697,
      "Ġfigures": 3698,
      "Ġterritory": 3699,
      "oncÃ©": 3700,
      "ĠBeyoncÃ©": 3701,
      "bar": 3702,
      "joy": 3703,
      "ken": 3704,
      "Ġtor": 3705,
      "Ġfell": 3706,
      "Ġpark": 3707,
      "Ġpath": 3708,
      "icted": 3709,
      "Ġthings": 3710,
      "ĠSix": 3711,
      "ĠMiami": 3712,
      "etic": 3713,
      "aging": 3714,
      "Ġdepend": 3715,
      "ĠOpen": 3716,
      "essa": 3717,
      "Ġenjoy": 3718,
      "ĠGermany": 3719,
      "ĠMuseum": 3720,
      "Ġproteins": 3721,
      "Ġvocals": 3722,
      "rical": 3723,
      "erbe": 3724,
      "anded": 3725,
      "ĠNations": 3726,
      "Ġsev": 3727,
      "ift": 3728,
      "Ġ39": 3729,
      "ously": 3730,
      "Ġprep": 3731,
      "Ġsomething": 3732,
      "Ġoperation": 3733,
      "ĠClub": 3734,
      "Ġwaters": 3735,
      "anz": 3736,
      "anas": 3737,
      "ĠTheir": 3738,
      "estival": 3739,
      "Ġcompanies": 3740,
      "ĠThrough": 3741,
      "Ġhighly": 3742,
      "Ġattacked": 3743,
      "Ġattempts": 3744,
      "Ġrequest": 3745,
      "Ġmorning": 3746,
      "Ġstrength": 3747,
      "Ġinvestig": 3748,
      "ĠService": 3749,
      "ny": 3750,
      "Ġtalk": 3751,
      "Ġreject": 3752,
      "admium": 3753,
      "ĠIll": 3754,
      "Ġaspect": 3755,
      "ander": 3756,
      "ĠInn": 3757,
      "Ġdise": 3758,
      "Ġfinanc": 3759,
      "Ġtransl": 3760,
      "Ġmetal": 3761,
      "Ġconfir": 3762,
      "ĠPrince": 3763,
      "Ġera": 3764,
      "Ġindividual": 3765,
      "Ġimmediately": 3766,
      "ĠPennsylvania": 3767,
      "lim": 3768,
      "Ġpil": 3769,
      "ĠSur": 3770,
      "ĠSquadron": 3771,
      "ademy": 3772,
      "uries": 3773,
      "Ġstone": 3774,
      "ĠGames": 3775,
      "ĠInter": 3776,
      "apo": 3777,
      "Ġnecess": 3778,
      "Ġinterse": 3779,
      "Ġincor": 3780,
      "Ġartist": 3781,
      "Ġdistance": 3782,
      "Ġallowing": 3783,
      "Ġpowerful": 3784,
      "Ġsituation": 3785,
      "Ġnuclear": 3786,
      "Ġremoved": 3787,
      "Ġpiano": 3788,
      "NA": 3789,
      "mon": 3790,
      "ply": 3791,
      "vement": 3792,
      "Ġhabit": 3793,
      "olf": 3794,
      "ĠHum": 3795,
      "ĠWater": 3796,
      "Ġselected": 3797,
      "ipp": 3798,
      "Ġrecover": 3799,
      "lands": 3800,
      "Ġoffered": 3801,
      "ibly": 3802,
      "Ġstudies": 3803,
      "Ġartillery": 3804,
      "Ġinside": 3805,
      "Ġadvance": 3806,
      "Ġvariety": 3807,
      "ĠJackson": 3808,
      "Ġneeded": 3809,
      "Ġpeaked": 3810,
      "ĠScotland": 3811,
      "TV": 3812,
      "Ġhot": 3813,
      "Ġnative": 3814,
      "chan": 3815,
      "Ġattend": 3816,
      "ĠJose": 3817,
      "Ġrate": 3818,
      "ĠUnder": 3819,
      "Ġ42": 3820,
      "Ġ182": 3821,
      "Ġmeans": 3822,
      "Ġ1991": 3823,
      "ĠChris": 3824,
      "Ġcountries": 3825,
      "Ġheadquarters": 3826,
      "Ġattempted": 3827,
      "ĠSomal": 3828,
      "Ġcopies": 3829,
      "pole": 3830,
      "Ġsaf": 3831,
      "rol": 3832,
      "ĠAI": 3833,
      "adium": 3834,
      "imony": 3835,
      "ether": 3836,
      "ĠLos": 3837,
      "Ġsearch": 3838,
      "ria": 3839,
      "anta": 3840,
      "Ġkick": 3841,
      "ĠChina": 3842,
      "Ġscoring": 3843,
      "ribution": 3844,
      "Ġprincip": 3845,
      "Ġcoach": 3846,
      "Ġtracks": 3847,
      "Ġhands": 3848,
      "Ġarchitect": 3849,
      "Ġcasual": 3850,
      "Ġrespectively": 3851,
      "Ġresponsible": 3852,
      "Ġpurp": 3853,
      "track": 3854,
      "een": 3855,
      "Ġpurs": 3856,
      "Ġmole": 3857,
      "ĠMajor": 3858,
      "Ġrule": 3859,
      "ĠOut": 3860,
      "Ġ47": 3861,
      "Ġsymb": 3862,
      "Ġdescribes": 3863,
      "Ġimpact": 3864,
      "Ġadvant": 3865,
      "Ġappearances": 3866,
      "ĠAnderson": 3867,
      "ĠBoth": 3868,
      "Ġgenus": 3869,
      "Ġhigher": 3870,
      "Ġwidely": 3871,
      "ĠDepartment": 3872,
      "Ġtouchdown": 3873,
      "cer": 3874,
      "ha": 3875,
      "ĠCrit": 3876,
      "cend": 3877,
      "ĠDan": 3878,
      "andid": 3879,
      "ĠNor": 3880,
      "Ġtext": 3881,
      "anger": 3882,
      "Ġspir": 3883,
      "orship": 3884,
      "Ġ1992": 3885,
      "Ġsets": 3886,
      "Ġcontrovers": 3887,
      "Ġcourse": 3888,
      "Ġobserved": 3889,
      "ĠCorps": 3890,
      "Ġsexual": 3891,
      "ĠBraat": 3892,
      "Ġheavily": 3893,
      "ĠFootball": 3894,
      "of": 3895,
      "rey": 3896,
      "reme": 3897,
      "Ġpick": 3898,
      "oud": 3899,
      "ĠAre": 3900,
      "Ġadult": 3901,
      "Ġ44": 3902,
      "ports": 3903,
      "Ġ1994": 3904,
      "Ġrelief": 3905,
      "Ġamb": 3906,
      "Ġbelow": 3907,
      "Ġphot": 3908,
      "Ġmiddle": 3909,
      "Ġmeeting": 3910,
      "Ġreduced": 3911,
      "ĠAlex": 3912,
      "Ġxenon": 3913,
      "iny": 3914,
      "Ġintern": 3915,
      "icient": 3916,
      "Ġang": 3917,
      "ĠLi": 3918,
      "ĠLike": 3919,
      "Ġplat": 3920,
      "Ġadminist": 3921,
      "Ġresulted": 3922,
      "Ġboy": 3923,
      "Ġsecret": 3924,
      "Ġactive": 3925,
      "Ġsinger": 3926,
      "Ġmatches": 3927,
      "Ġsixth": 3928,
      "ĠMinnes": 3929,
      "ricket": 3930,
      "Ġaudience": 3931,
      "Ġconcluded": 3932,
      "ĠMinnesota": 3933,
      "aen": 3934,
      "car": 3935,
      "ga": 3936,
      "lict": 3937,
      "ship": 3938,
      "Ġsal": 3939,
      "ĠTem": 3940,
      "ĠTime": 3941,
      "ils": 3942,
      "akapo": 3943,
      "Ġtrue": 3944,
      "Ġlands": 3945,
      "ĠFranc": 3946,
      "inkel": 3947,
      "Ġactivity": 3948,
      "Ġactivities": 3949,
      "Ġcompletely": 3950,
      "ĠVictor": 3951,
      "Ġess": 3952,
      "isher": 3953,
      "ĠSouthern": 3954,
      "cts": 3955,
      "Ġstating": 3956,
      "ĠDel": 3957,
      "send": 3958,
      "Ġmanaged": 3959,
      "Ġopportun": 3960,
      "ĠCenter": 3961,
      "ĠTownsend": 3962,
      "Ġrevealed": 3963,
      "Ġcontemporary": 3964,
      "like": 3965,
      "atives": 3966,
      "Ġfill": 3967,
      "Ġhour": 3968,
      "ems": 3969,
      "ocr": 3970,
      "ĠSea": 3971,
      "Ġquality": 3972,
      "Ġgraph": 3973,
      "ĠColon": 3974,
      "Ġrefused": 3975,
      "Ġlevels": 3976,
      "Ġdeclared": 3977,
      "Ġtrees": 3978,
      "Ġseparate": 3979,
      "ĠItalian": 3980,
      "cause": 3981,
      "iated": 3982,
      "Ġbad": 3983,
      "ication": 3984,
      "ĠSir": 3985,
      "ĠMidd": 3986,
      "ĠFinkel": 3987,
      "ĠLong": 3988,
      "ologist": 3989,
      "Ġblue": 3990,
      "annel": 3991,
      "Ġconstit": 3992,
      "ĠBecause": 3993,
      "rowd": 3994,
      "ĠForce": 3995,
      "Ġdrum": 3996,
      "ĠWalpole": 3997,
      "Ġquestion": 3998,
      "ĠHawai": 3999,
      "ĠMeyerbe": 4000,
      "ĠFinkelstein": 4001,
      "ĠMeyerbeer": 4002,
      "MS": 4003,
      "iqu": 4004,
      "ining": 4005,
      "Ġtoday": 4006,
      "lement": 4007,
      "ĠTessa": 4008,
      "ĠSol": 4009,
      "ify": 4010,
      "aped": 4011,
      "Ġuniversity": 4012,
      "peror": 4013,
      "Ġrecent": 4014,
      "Ġshell": 4015,
      "athus": 4016,
      "Ġblood": 4017,
      "Ġbackground": 4018,
      "ĠShiva": 4019,
      "Ġfeaturing": 4020,
      "Ġinstit": 4021,
      "Ġcarry": 4022,
      "Ġmodel": 4023,
      "Ġapproach": 4024,
      "Ġcontrast": 4025,
      "Ġhistorical": 4026,
      "Ġtypically": 4027,
      "Ġparents": 4028,
      "ares": 4029,
      "Ġiron": 4030,
      "Ġactions": 4031,
      "Ġpaper": 4032,
      "ĠCast": 4033,
      "Ġris": 4034,
      "oph": 4035,
      "Ġexpected": 4036,
      "Ġ51": 4037,
      "ĠYue": 4038,
      "Ġ76": 4039,
      "Ġdescript": 4040,
      "Ġissues": 4041,
      "Ġconditions": 4042,
      "Ġmultip": 4043,
      "ĠSmith": 4044,
      "ĠSociety": 4045,
      "ĠOttoman": 4046,
      "ĠNicole": 4047,
      "uff": 4048,
      "Ġtax": 4049,
      "hew": 4050,
      "Ġwing": 4051,
      "alty": 4052,
      "ican": 4053,
      "Ġreception": 4054,
      "ĠMill": 4055,
      "ĠBet": 4056,
      "utch": 4057,
      "ĠWild": 4058,
      "ĠLit": 4059,
      "Ġrhy": 4060,
      "Ġcompos": 4061,
      "rawn": 4062,
      "Ġplays": 4063,
      "Ġattention": 4064,
      "Ġweaken": 4065,
      "oint": 4066,
      "Ġpeace": 4067,
      "Ġentr": 4068,
      "Ġmainly": 4069,
      "Ġefforts": 4070,
      "Ġbecomes": 4071,
      "Ġhouses": 4072,
      "force": 4073,
      "cle": 4074,
      "Ġwit": 4075,
      "Ġpow": 4076,
      "Ġnation": 4077,
      "ĠBalt": 4078,
      "ĠJim": 4079,
      "ĠEmp": 4080,
      "Ġ37": 4081,
      "Ġresidents": 4082,
      "Ġoffer": 4083,
      "ounds": 4084,
      "Ġwebs": 4085,
      "Ġspecim": 4086,
      "Ġsubs": 4087,
      "Ġgrand": 4088,
      "Ġemot": 4089,
      "Ġbrown": 4090,
      "ervation": 4091,
      "Ġstrugg": 4092,
      "shire": 4093,
      "ĠHighway": 4094,
      "Ġvehic": 4095,
      "ĠBraathens": 4096,
      "ging": 4097,
      "rate": 4098,
      "Ġsense": 4099,
      "isl": 4100,
      "Ġlot": 4101,
      "Ġnarr": 4102,
      "ado": 4103,
      "ĠDam": 4104,
      "Ġconsec": 4105,
      "Ġactually": 4106,
      "Ġcalling": 4107,
      "Ġtitles": 4108,
      "Ġmagn": 4109,
      "Ġsoundtrack": 4110,
      "ĠHait": 4111,
      "ufact": 4112,
      "bed": 4113,
      "ware": 4114,
      "Ġtask": 4115,
      "het": 4116,
      "eds": 4117,
      "Ġhair": 4118,
      "ĠDire": 4119,
      "ĠNes": 4120,
      "ellig": 4121,
      "Ġroy": 4122,
      "Ġroles": 4123,
      "Ġseasons": 4124,
      "Ġwrite": 4125,
      "ĠJohnson": 4126,
      "ĠBlue": 4127,
      "ĠAdam": 4128,
      "Ġstruck": 4129,
      "Ġdemonst": 4130,
      "Ġaccepted": 4131,
      "Ġachieved": 4132,
      "Ġcannot": 4133,
      "ĠCourt": 4134,
      "ĠIllino": 4135,
      "uated": 4136,
      "Ġathlet": 4137,
      "Ġwear": 4138,
      "Ġbene": 4139,
      "icip": 4140,
      "Ġlif": 4141,
      "imin": 4142,
      "ĠDem": 4143,
      "ĠCharl": 4144,
      "Ġrecomm": 4145,
      "Ġresc": 4146,
      "Ġinstr": 4147,
      "Ġfamil": 4148,
      "uese": 4149,
      "Ġrespond": 4150,
      "Ġprotein": 4151,
      "Ġviewers": 4152,
      "arent": 4153,
      "Ġvocal": 4154,
      "Ġpractice": 4155,
      "ĠVietnam": 4156,
      "ĠPortuguese": 4157,
      "hood": 4158,
      "onents": 4159,
      "Ġcorn": 4160,
      "Ġcrowd": 4161,
      "Ġfiction": 4162,
      "Ġthous": 4163,
      "Ġbeat": 4164,
      "ĠFey": 4165,
      "aine": 4166,
      "ĠJul": 4167,
      "rial": 4168,
      "appen": 4169,
      "Ġ48": 4170,
      "ĠThunder": 4171,
      "Ġ181": 4172,
      "Ġscient": 4173,
      "Ġelev": 4174,
      "Ġavoid": 4175,
      "Ġprimarily": 4176,
      "Ġsequence": 4177,
      "ĠGovernment": 4178,
      "ĠAcademy": 4179,
      "Ġchem": 4180,
      "itual": 4181,
      "ĠTy": 4182,
      "ĠTod": 4183,
      "Ġlb": 4184,
      "ĠCivil": 4185,
      "ĠGar": 4186,
      "ĠOf": 4187,
      "ĠEr": 4188,
      "essions": 4189,
      "Ġ52": 4190,
      "Ġboard": 4191,
      "Ġspread": 4192,
      "ĠRev": 4193,
      "Ġelected": 4194,
      "Ġ1986": 4195,
      "venue": 4196,
      "Ġinfantry": 4197,
      "Ġowned": 4198,
      "ĠColumb": 4199,
      "Ġtwenty": 4200,
      "Ġcombat": 4201,
      "Ġtypes": 4202,
      "Ġslightly": 4203,
      "ding": 4204,
      "hold": 4205,
      "writ": 4206,
      "Ġsales": 4207,
      "Ġsister": 4208,
      "anes": 4209,
      "Ġmax": 4210,
      "Ġnin": 4211,
      "acher": 4212,
      "ĠRam": 4213,
      "Ġaltern": 4214,
      "ulations": 4215,
      "ĠLand": 4216,
      "Ġplant": 4217,
      "ĠKr": 4218,
      "Ġscale": 4219,
      "Ġoffensive": 4220,
      "Ġsport": 4221,
      "ĠNews": 4222,
      "Ġinches": 4223,
      "ĠEngine": 4224,
      "Ġ150": 4225,
      "Ġexpressed": 4226,
      "Ġconcent": 4227,
      "ĠSpain": 4228,
      "Ġrights": 4229,
      "Ġnortheast": 4230,
      "Ġaffected": 4231,
      "ĠCaptain": 4232,
      "Ġwords": 4233,
      "Ġhorse": 4234,
      "ĠMog": 4235,
      "ĠHorse": 4236,
      "ulpt": 4237,
      "estic": 4238,
      "Ġ34": 4239,
      "Ġrough": 4240,
      "Ġ180": 4241,
      "Ġsculpt": 4242,
      "Ġneigh": 4243,
      "ĠReview": 4244,
      "Ġshowed": 4245,
      "Ġofficer": 4246,
      "aha": 4247,
      "ograph": 4248,
      "Äģd": 4249,
      "ceeded": 4250,
      "cription": 4251,
      "ĠLouis": 4252,
      "ĠGroup": 4253,
      "bury": 4254,
      "uit": 4255,
      "vin": 4256,
      "Ġsout": 4257,
      "Ġspl": 4258,
      "Ġwalk": 4259,
      "Ġpup": 4260,
      "road": 4261,
      "ĠTint": 4262,
      "ĠMal": 4263,
      "ushed": 4264,
      "ĠWels": 4265,
      "ĠGreen": 4266,
      "Ġsuc": 4267,
      "Ġability": 4268,
      "ĠYoung": 4269,
      "Ġthemes": 4270,
      "ledge": 4271,
      "ĠZhou": 4272,
      "Ġcounty": 4273,
      "Ġbattalion": 4274,
      "Ġwindow": 4275,
      "Ġcombined": 4276,
      "ĠSecret": 4277,
      "ĠVaranas": 4278,
      "ĠLittle": 4279,
      "ĠEmpire": 4280,
      "ĠTintin": 4281,
      "ĠWelsh": 4282,
      "ĠVaranasi": 4283,
      "FA": 4284,
      "house": 4285,
      "light": 4286,
      "nh": 4287,
      "Ġfruit": 4288,
      "arrow": 4289,
      "Ġpun": 4290,
      "ingu": 4291,
      "Ġrear": 4292,
      "Ġsust": 4293,
      "ĠThough": 4294,
      "Ġprec": 4295,
      "Ġtitled": 4296,
      "Ġprogress": 4297,
      "ĠAndrew": 4298,
      "Ġcultural": 4299,
      "bitt": 4300,
      "onymous": 4301,
      "Ġincorpor": 4302,
      "Ġcasualties": 4303,
      "ĠNesbitt": 4304,
      "BA": 4305,
      "mun": 4306,
      "Ġsquare": 4307,
      "Ġmountain": 4308,
      "ĠManc": 4309,
      "ĠBurn": 4310,
      "ĠDist": 4311,
      "emic": 4312,
      "umber": 4313,
      "Ġremark": 4314,
      "Ġproduce": 4315,
      "Ġcontinues": 4316,
      "Ġsays": 4317,
      "Ġearliest": 4318,
      "ĠEva": 4319,
      "ironment": 4320,
      "Ġexcav": 4321,
      "ĠOdaen": 4322,
      "ĠAngeles": 4323,
      "Ġmentioned": 4324,
      "Ġancient": 4325,
      "Ġnewspaper": 4326,
      "Ġmurder": 4327,
      "ĠCeres": 4328,
      "Ġrecommend": 4329,
      "ĠOdaenathus": 4330,
      "Mont": 4331,
      "eter": 4332,
      "Ġfully": 4333,
      "Ġinh": 4334,
      "Ġdyn": 4335,
      "Ġhol": 4336,
      "ĠTurn": 4337,
      "ĠSarn": 4338,
      "ĠSpec": 4339,
      "omer": 4340,
      "ĠBook": 4341,
      "ĠHome": 4342,
      "etts": 4343,
      "oses": 4344,
      "Ġchampionship": 4345,
      "Ġmanufact": 4346,
      "Ġactor": 4347,
      "Ġartists": 4348,
      "Ġdistinct": 4349,
      "ĠConf": 4350,
      "ĠCommun": 4351,
      "pedo": 4352,
      "ĠTrans": 4353,
      "Ġresulting": 4354,
      "Ġ1920": 4355,
      "Ġauthorities": 4356,
      "Ġinfluenced": 4357,
      "ĠRecords": 4358,
      "Ġflooding": 4359,
      "ĠDuMont": 4360,
      "ĠOlympic": 4361,
      "Ġcerem": 4362,
      "Ġadopted": 4363,
      "Ġdisease": 4364,
      "ĠSarnia": 4365,
      "ev": 4366,
      "gal": 4367,
      "enant": 4368,
      "Ġmission": 4369,
      "utions": 4370,
      "ĠRad": 4371,
      "Ġreports": 4372,
      "ĠAdd": 4373,
      "ĠOrigin": 4374,
      "Ġbasis": 4375,
      "ĠPerÃ³n": 4376,
      "Ġrepresented": 4377,
      "while": 4378,
      "Ġadvantage": 4379,
      "ĠIllinois": 4380,
      "bird": 4381,
      "nown": 4382,
      "Ġtoward": 4383,
      "Ġhar": 4384,
      "Ġrepe": 4385,
      "ĠBol": 4386,
      "Ġalone": 4387,
      "ĠJos": 4388,
      "ĠOm": 4389,
      "Ġcoming": 4390,
      "ovic": 4391,
      "ĠArg": 4392,
      "Ġassault": 4393,
      "Ġapparent": 4394,
      "Ġdefense": 4395,
      "Ġqual": 4396,
      "Ġgrass": 4397,
      "ĠCont": 4398,
      "helm": 4399,
      "Ġletters": 4400,
      "Ġtower": 4401,
      "ĠApple": 4402,
      "Ġtournament": 4403,
      "ĠThunderbird": 4404,
      "ĠMogad": 4405,
      "ĠManchester": 4406,
      "Ġsides": 4407,
      "nds": 4408,
      "orus": 4409,
      "Ġreign": 4410,
      "Ġreact": 4411,
      "ĠSR": 4412,
      "ĠSal": 4413,
      "imb": 4414,
      "ĠFred": 4415,
      "ĠWash": 4416,
      "Ġexhib": 4417,
      "Ġkakapo": 4418,
      "Ġarmed": 4419,
      "Ġworkers": 4420,
      "Ġrelatively": 4421,
      "ĠDef": 4422,
      "ocks": 4423,
      "Ġfounded": 4424,
      "Ġbridge": 4425,
      "Ġalongside": 4426,
      "Ġoccasion": 4427,
      "Ġnorthwest": 4428,
      "Ġencour": 4429,
      "Ġwithdraw": 4430,
      "Ġtorpedo": 4431,
      "ĠWashington": 4432,
      "lin": 4433,
      "mir": 4434,
      "Ġcadmium": 4435,
      "Ġfa": 4436,
      "room": 4437,
      "Ġlosing": 4438,
      "Ġnest": 4439,
      "Ġnarrow": 4440,
      "ĠPost": 4441,
      "ĠFour": 4442,
      "ĠDou": 4443,
      "Ġattended": 4444,
      "ĠOcean": 4445,
      "Ġyellow": 4446,
      "Ġcontain": 4447,
      "Ġmechan": 4448,
      "Ġ1988": 4449,
      "Ġdirection": 4450,
      "Ġtermin": 4451,
      "Ġofficially": 4452,
      "Ġedition": 4453,
      "Ġtried": 4454,
      "Ġorganized": 4455,
      "Ġcapture": 4456,
      "Ġlegal": 4457,
      "Ġindividuals": 4458,
      "Ġillust": 4459,
      "Ġtransferred": 4460,
      "Ġmess": 4461,
      "Ġmile": 4462,
      "ĠAv": 4463,
      "ĠWay": 4464,
      "osen": 4465,
      "Ġproved": 4466,
      "abama": 4467,
      "eller": 4468,
      "ogue": 4469,
      "Ġperman": 4470,
      "ĠAlabama": 4471,
      "ension": 4472,
      "Ġacting": 4473,
      "Ġeffort": 4474,
      "ĠClark": 4475,
      "ĠProdu": 4476,
      "Ġrequire": 4477,
      "Ġofficials": 4478,
      "Ġmeasure": 4479,
      "Ġphysical": 4480,
      "Ġsurrounding": 4481,
      "Ġdedicated": 4482,
      "ĠMiddle": 4483,
      "ĠOmaha": 4484,
      "AA": 4485,
      "mes": 4486,
      "Ġcandid": 4487,
      "Ġdu": 4488,
      "Ġthir": 4489,
      "Ġlives": 4490,
      "Ġeye": 4491,
      "ĠMD": 4492,
      "Ġstarl": 4493,
      "usion": 4494,
      "Ġrang": 4495,
      "ricult": 4496,
      "Ġenergy": 4497,
      "Ġprin": 4498,
      "Ġdoing": 4499,
      "prise": 4500,
      "Ġemph": 4501,
      "Ġedge": 4502,
      "Ġextr": 4503,
      "Ġconflict": 4504,
      "Ġcouple": 4505,
      "Ġrainfall": 4506,
      "ien": 4507,
      "right": 4508,
      "wen": 4509,
      "ading": 4510,
      "adel": 4511,
      "imore": 4512,
      "ishu": 4513,
      "Ġprepar": 4514,
      "ĠReception": 4515,
      "Ġfollows": 4516,
      "Ġdesignated": 4517,
      "ĠMean": 4518,
      "Ġshortly": 4519,
      "Ġpossibly": 4520,
      "Ġpattern": 4521,
      "Ġdivided": 4522,
      "Ġintensity": 4523,
      "ĠHelms": 4524,
      "Ġfinancial": 4525,
      "ĠMogadishu": 4526,
      "mond": 4527,
      "Ġir": 4528,
      "Ġfaced": 4529,
      "Ġpaid": 4530,
      "Ġhun": 4531,
      "ĠSch": 4532,
      "ols": 4533,
      "ĠHal": 4534,
      "ĠFam": 4535,
      "ĠFant": 4536,
      "ĠLord": 4537,
      "Ġvo": 4538,
      "Ġven": 4539,
      "Ġshape": 4540,
      "Ġyour": 4541,
      "Ġyoun": 4542,
      "Ġ49": 4543,
      "Ġimages": 4544,
      "Ġ65": 4545,
      "Ġalbums": 4546,
      "Ġ1964": 4547,
      "Ġsimply": 4548,
      "Ġwinter": 4549,
      "Ġolder": 4550,
      "ĠEdward": 4551,
      "Ġsociety": 4552,
      "Ġsources": 4553,
      "ĠWilhelm": 4554,
      "Ġdetermined": 4555,
      "ĠInnis": 4556,
      "Ġmaximum": 4557,
      "lied": 4558,
      "mit": 4559,
      "rane": 4560,
      "Ġaid": 4561,
      "Ġple": 4562,
      "ĠCons": 4563,
      "Ġonto": 4564,
      "ĠMax": 4565,
      "ĠBre": 4566,
      "Ġstep": 4567,
      "ĠNC": 4568,
      "Ġrat": 4569,
      "Ġraid": 4570,
      "Ġcomedy": 4571,
      "Ġchief": 4572,
      "Ġplaces": 4573,
      "ĠKent": 4574,
      "orses": 4575,
      "ugby": 4576,
      "ĠIndepend": 4577,
      "Ġbroken": 4578,
      "Ġportion": 4579,
      "Ġbehav": 4580,
      "ĠAssembly": 4581,
      "Ġkept": 4582,
      "Ġfunction": 4583,
      "ĠHistor": 4584,
      "Ġpiece": 4585,
      "Ġdissip": 4586,
      "Ġpotential": 4587,
      "Ġjournal": 4588,
      "uzz": 4589,
      "Ġborder": 4590,
      "ĠJoseph": 4591,
      "Ġemphas": 4592,
      "onna": 4593,
      "Ġsac": 4594,
      "Ġcities": 4595,
      "ental": 4596,
      "igan": 4597,
      "use": 4598,
      "ĠFleet": 4599,
      "ĠJup": 4600,
      "ĠJourn": 4601,
      "Ġunivers": 4602,
      "Ġadvert": 4603,
      "Ġcharge": 4604,
      "Ġmovie": 4605,
      "ĠCommission": 4606,
      "Ġprotect": 4607,
      "Ġargued": 4608,
      "ĠMcCall": 4609,
      "Station": 4610,
      "rid": 4611,
      "Ġwild": 4612,
      "Ġfeder": 4613,
      "Ġfolk": 4614,
      "Ġmind": 4615,
      "Ġthr": 4616,
      "ada": 4617,
      "Ġgrew": 4618,
      "ĠRih": 4619,
      "ĠFer": 4620,
      "Ġheart": 4621,
      "oper": 4622,
      "Ġcontent": 4623,
      "ĠVan": 4624,
      "Ġcolor": 4625,
      "Ġdepth": 4626,
      "Ġsuggests": 4627,
      "Ġauthority": 4628,
      "Ġsites": 4629,
      "Ġprojects": 4630,
      "Ġmanagement": 4631,
      "ĠHamels": 4632,
      "ĠPlayStation": 4633,
      "Ġdomestic": 4634,
      "ĠBaltimore": 4635,
      "ĠArgent": 4636,
      "ĠRihanna": 4637,
      "Ġwor": 4638,
      "Ġwave": 4639,
      "edar": 4640,
      "atops": 4641,
      "Ġpaint": 4642,
      "rown": 4643,
      "Ġdut": 4644,
      "lection": 4645,
      "iled": 4646,
      "acement": 4647,
      "Ġgained": 4648,
      "ĠBowl": 4649,
      "ĠRh": 4650,
      "ĠDest": 4651,
      "ĠGreek": 4652,
      "Ġroll": 4653,
      "Ġscience": 4654,
      "Ġweak": 4655,
      "Ġ64": 4656,
      "Ġprison": 4657,
      "Ġmuseum": 4658,
      "Ġbelong": 4659,
      "Ġdepart": 4660,
      "ĠCommon": 4661,
      "Ġlegisl": 4662,
      "Ġcausing": 4663,
      "Ġtwice": 4664,
      "Ġcriticized": 4665,
      "Ġstructures": 4666,
      "Ġletter": 4667,
      "ĠValley": 4668,
      "Ġtarget": 4669,
      "Ġultimately": 4670,
      "Ġschedul": 4671,
      "Ġentrance": 4672,
      "Ġwebsite": 4673,
      "Ġroyal": 4674,
      "ex": 4675,
      "je": 4676,
      "kare": 4677,
      "lies": 4678,
      "Ġunk": 4679,
      "edkare": 4680,
      "Ġfit": 4681,
      "Ġfung": 4682,
      "ening": 4683,
      "ani": 4684,
      "ĠTru": 4685,
      "ented": 4686,
      "enture": 4687,
      "ĠCra": 4688,
      "Ġvess": 4689,
      "Ġshare": 4690,
      "Ġcontaining": 4691,
      "Ġneut": 4692,
      "Ġformation": 4693,
      "Ġextra": 4694,
      "Ġresults": 4695,
      "ĠWeek": 4696,
      "Ġdebuted": 4697,
      "ĠPalest": 4698,
      "Ġdoub": 4699,
      "Ġhomes": 4700,
      "ĠDjedkare": 4701,
      "ĠJupiter": 4702,
      "mission": 4703,
      "wide": 4704,
      "Ġhospital": 4705,
      "ĠMass": 4706,
      "ĠWrit": 4707,
      "ĠGall": 4708,
      "Ġdeploy": 4709,
      "Ġchosen": 4710,
      "Ġkg": 4711,
      "asty": 4712,
      "claim": 4713,
      "ĠVen": 4714,
      "Ġagg": 4715,
      "Ġdefence": 4716,
      "Ġdefensive": 4717,
      "Ġ1947": 4718,
      "Ġartic": 4719,
      "ĠConstant": 4720,
      "Ġbattles": 4721,
      "Ġforeign": 4722,
      "ĠTorres": 4723,
      "Ġopin": 4724,
      "Ġlabel": 4725,
      "VD": 4726,
      "bour": 4727,
      "Ġcore": 4728,
      "Ġinch": 4729,
      "Ġmouth": 4730,
      "Ġmaster": 4731,
      "ĠSen": 4732,
      "ĠSar": 4733,
      "ĠHib": 4734,
      "ĠHorn": 4735,
      "ĠDVD": 4736,
      "ĠNight": 4737,
      "ĠLis": 4738,
      "ĠLew": 4739,
      "umes": 4740,
      "ĠEastern": 4741,
      "resh": 4742,
      "acks": 4743,
      "ĠKore": 4744,
      "Ġsecurity": 4745,
      "Ġbrigade": 4746,
      "Ġprominent": 4747,
      "Ġstanding": 4748,
      "Ġreference": 4749,
      "Ġfrag": 4750,
      "Ġgrowing": 4751,
      "Ġanimal": 4752,
      "Ġburied": 4753,
      "Ġgranted": 4754,
      "Ġabandoned": 4755,
      "Ġdismiss": 4756,
      "Ġrejected": 4757,
      "Ġconsecutive": 4758,
      "inary": 4759,
      "ĠSil": 4760,
      "ĠFA": 4761,
      "ĠOnce": 4762,
      "ĠAnn": 4763,
      "Ġcolony": 4764,
      "Ġtherefore": 4765,
      "Ġ1941": 4766,
      "Ġvisited": 4767,
      "Ġorganization": 4768,
      "Ġclaims": 4769,
      "Ġtemple": 4770,
      "Ġorders": 4771,
      "Ġcells": 4772,
      "white": 4773,
      "ĠScottish": 4774,
      "ĠForest": 4775,
      "Ġrisk": 4776,
      "ĠApplewhite": 4777,
      "met": 4778,
      "Ġrom": 4779,
      "nding": 4780,
      "Ġmel": 4781,
      "roll": 4782,
      "stone": 4783,
      "ĠLo": 4784,
      "Ġseek": 4785,
      "iana": 4786,
      "ĠChap": 4787,
      "Ġjump": 4788,
      "Ġspot": 4789,
      "Ġremix": 4790,
      "Ġregions": 4791,
      "Ġseconds": 4792,
      "phia": 4793,
      "Ġsingles": 4794,
      "Ġ1987": 4795,
      "ĠShort": 4796,
      "Ġstudent": 4797,
      "Ġminer": 4798,
      "Ġbroke": 4799,
      "ĠAirport": 4800,
      "Ġcondition": 4801,
      "Ġindependent": 4802,
      "Ġwounded": 4803,
      "adelphia": 4804,
      "ML": 4805,
      "mark": 4806,
      "Ġahead": 4807,
      "Ġfix": 4808,
      "isters": 4809,
      "ĠTri": 4810,
      "Ġreaching": 4811,
      "ĠAp": 4812,
      "ĠCam": 4813,
      "ĠBig": 4814,
      "ĠPop": 4815,
      "ĠInstitute": 4816,
      "ĠChild": 4817,
      "Ġintellig": 4818,
      "Ġadj": 4819,
      "Ġenemy": 4820,
      "ĠAtt": 4821,
      "Ġenter": 4822,
      "ertain": 4823,
      "ancy": 4824,
      "Ġversions": 4825,
      "Ġcollect": 4826,
      "Ġplanet": 4827,
      "Ġsolo": 4828,
      "Ġcases": 4829,
      "Ġidentified": 4830,
      "Ġcollabor": 4831,
      "Ġnominated": 4832,
      "Ġseems": 4833,
      "ĠEgyptian": 4834,
      "Ġtemperature": 4835,
      "Ġequipment": 4836,
      "Ġmoment": 4837,
      "ĠBackground": 4838,
      "ech": 4839,
      "Ġaired": 4840,
      "Ġbott": 4841,
      "Ġmales": 4842,
      "ĠSAF": 4843,
      "ĠBBC": 4844,
      "ims": 4845,
      "ĠFurther": 4846,
      "ĠDue": 4847,
      "Ġconver": 4848,
      "Ġheight": 4849,
      "ĠUs": 4850,
      "Ġunique": 4851,
      "Ġ53": 4852,
      "Ġnewly": 4853,
      "Ġelement": 4854,
      "Ġ120": 4855,
      "Ġ1984": 4856,
      "Ġ1989": 4857,
      "Ġ1972": 4858,
      "Ġreturning": 4859,
      "Ġsupporting": 4860,
      "ĠBefore": 4861,
      "Ġcampus": 4862,
      "Ġopposed": 4863,
      "Ġknowledge": 4864,
      "Ġproblem": 4865,
      "ĠCroatia": 4866,
      "ĠSAFE": 4867,
      "uous": 4868,
      "Ġtur": 4869,
      "rete": 4870,
      "Ġwa": 4871,
      "Ġfle": 4872,
      "Ġfear": 4873,
      "Ġfired": 4874,
      "Ġdress": 4875,
      "iles": 4876,
      "ĠMike": 4877,
      "ĠBir": 4878,
      "ety": 4879,
      "ĠGood": 4880,
      "ĠLock": 4881,
      "ĠEach": 4882,
      "ocated": 4883,
      "astic": 4884,
      "Ġteacher": 4885,
      "Ġweight": 4886,
      "Ġinterp": 4887,
      "Ġ1985": 4888,
      "ĠIndust": 4889,
      "Ġoperated": 4890,
      "Ġlooking": 4891,
      "Ġincreasingly": 4892,
      "Ġliterature": 4893,
      "Ġconnect": 4894,
      "ĠOperation": 4895,
      "Ġanalysis": 4896,
      "Ġunknown": 4897,
      "bon": 4898,
      "iate": 4899,
      "Ġtun": 4900,
      "Ġtheory": 4901,
      "Ġcouncil": 4902,
      "asters": 4903,
      "igg": 4904,
      "ĠHMS": 4905,
      "ĠPo": 4906,
      "ĠField": 4907,
      "ĠLar": 4908,
      "Ġhere": 4909,
      "Ġshr": 4910,
      "Ġcompr": 4911,
      "Ġwrites": 4912,
      "Ġdefin": 4913,
      "Ġbelieve": 4914,
      "Ġexplained": 4915,
      "Ġbreeding": 4916,
      "Ġcommonly": 4917,
      "ĠBarrow": 4918,
      "Ġhistorian": 4919,
      "Ġideas": 4920,
      "Ġburns": 4921,
      "ĠCardiff": 4922,
      "Ġsettlement": 4923,
      "Ġenvironment": 4924,
      "Ġconfirmed": 4925,
      "mosp": 4926,
      "Ġox": 4927,
      "Ġoil": 4928,
      "atch": 4929,
      "orter": 4930,
      "Ġcricket": 4931,
      "Ġbud": 4932,
      "ĠSum": 4933,
      "ĠMore": 4934,
      "Ġstations": 4935,
      "ĠPublic": 4936,
      "ĠRA": 4937,
      "Ġalter": 4938,
      "Ġatmosp": 4939,
      "ĠOx": 4940,
      "ortal": 4941,
      "Ġarrest": 4942,
      "Ġherself": 4943,
      "Ġperfect": 4944,
      "Ġ55": 4945,
      "ibr": 4946,
      "ĠOnly": 4947,
      "Ġconsisted": 4948,
      "hips": 4949,
      "Ġsinging": 4950,
      "Ġ1944": 4951,
      "Ġadvanced": 4952,
      "Ġsystems": 4953,
      "Ġphil": 4954,
      "Ġfemales": 4955,
      "ĠMichigan": 4956,
      "ĠPhiladelphia": 4957,
      "Ġproperty": 4958,
      "Ġeconomic": 4959,
      "Ġscholars": 4960,
      "Ġcontrolled": 4961,
      "ĠEntertain": 4962,
      "Ġmolec": 4963,
      "yes": 4964,
      "Ġfast": 4965,
      "Ġfox": 4966,
      "alions": 4967,
      "Ġparliament": 4968,
      "Ġmount": 4969,
      "Ġhappen": 4970,
      "ĠMounted": 4971,
      "ĠNorm": 4972,
      "ĠNever": 4973,
      "ĠJon": 4974,
      "Ġdeities": 4975,
      "odon": 4976,
      "ĠEven": 4977,
      "Ġmaintained": 4978,
      "Ġgrowth": 4979,
      "ĠKeats": 4980,
      "appy": 4981,
      "ĠSwed": 4982,
      "Ġdevot": 4983,
      "Ġstrengt": 4984,
      "Ġpieces": 4985,
      "Ġfailure": 4986,
      "Ġdropped": 4987,
      "Ġkilomet": 4988,
      "ĠMeanwhile": 4989,
      "tav": 4990,
      "Ġawards": 4991,
      "Ġsens": 4992,
      "isation": 4993,
      "Ġpan": 4994,
      "ĠBon": 4995,
      "ĠDutch": 4996,
      "istry": 4997,
      "Ġcompar": 4998,
      "ĠAlbum": 4999,
      "ĠArm": 5000,
      "Ġfilmed": 5001,
      "Ġcreation": 5002,
      "Ġlandfall": 5003,
      "ĠCarl": 5004,
      "ĠClass": 5005,
      "Ġkilling": 5006,
      "Ġfreeway": 5007,
      "ĠWilliams": 5008,
      "Ġpitched": 5009,
      "ĠMorr": 5010,
      "Ġstrike": 5011,
      "Ġhonor": 5012,
      "Ġflying": 5013,
      "Ġinjury": 5014,
      "ĠAddition": 5015,
      "aling": 5016,
      "Ġmounted": 5017,
      "Ġhorses": 5018,
      "ĠBan": 5019,
      "Ġconne": 5020,
      "ĠNathan": 5021,
      "agan": 5022,
      "ĠJur": 5023,
      "ighth": 5024,
      "Ġextend": 5025,
      "Ġtry": 5026,
      "ieval": 5027,
      "Ġ43": 5028,
      "Ġresemb": 5029,
      "Ġboats": 5030,
      "ĠItaly": 5031,
      "Ġserve": 5032,
      "Ġspeak": 5033,
      "Ġ600": 5034,
      "Ġretired": 5035,
      "Ġactress": 5036,
      "airs": 5037,
      "Ġexped": 5038,
      "ĠAndy": 5039,
      "Ġbelief": 5040,
      "Ġhumans": 5041,
      "ĠSteve": 5042,
      "Ġpromoted": 5043,
      "Ġvalue": 5044,
      "urban": 5045,
      "ĠCongress": 5046,
      "ĠPrem": 5047,
      "Ġrapidly": 5048,
      "Ġbattery": 5049,
      "Ġweapons": 5050,
      "lers": 5051,
      "sw": 5052,
      "Ġselling": 5053,
      "Ġbid": 5054,
      "Ġpict": 5055,
      "stream": 5056,
      "Ġstra": 5057,
      "Ġ56": 5058,
      "Ġimag": 5059,
      "Ġweather": 5060,
      "ĠAmericans": 5061,
      "Ġinvasion": 5062,
      "ĠConference": 5063,
      "Ġpasses": 5064,
      "Ġpassing": 5065,
      "Ġpublication": 5066,
      "ĠMinister": 5067,
      "ĠAbu": 5068,
      "Ġsignificantly": 5069,
      "Ġcougar": 5070,
      "Ġreligion": 5071,
      "Ġpromotion": 5072,
      "Ġrecognized": 5073,
      "Ġcreating": 5074,
      "Ġconnected": 5075,
      "Ġsemi": 5076,
      "Ġpremi": 5077,
      "Ġprepared": 5078,
      "Ġdescription": 5079,
      "Ġmultiple": 5080,
      "Ġfederal": 5081,
      "Ġstraight": 5082,
      "Le": 5083,
      "haps": 5084,
      "more": 5085,
      "pass": 5086,
      "uge": 5087,
      "Ġast": 5088,
      "Ġsought": 5089,
      "itch": 5090,
      "Ġbats": 5091,
      "asure": 5092,
      "Ġdata": 5093,
      "oured": 5094,
      "ĠSor": 5095,
      "oty": 5096,
      "ĠFinal": 5097,
      "ĠGord": 5098,
      "Ġchose": 5099,
      "ĠVideo": 5100,
      "ampion": 5101,
      "Ġcolumn": 5102,
      "ĠDevelop": 5103,
      "Ġleader": 5104,
      "Ġfamous": 5105,
      "Ġmatter": 5106,
      "Ġrestaur": 5107,
      "ĠGuard": 5108,
      "Ġdeliver": 5109,
      "Ġpopularity": 5110,
      "arrison": 5111,
      "Ġprotest": 5112,
      "Ġproducers": 5113,
      "Ġvolume": 5114,
      "Ġwalls": 5115,
      "Ġregarded": 5116,
      "Ġseventh": 5117,
      "Ġaspects": 5118,
      "Ġnecessary": 5119,
      "Ġscheduled": 5120,
      "gn": 5121,
      "uild": 5122,
      "Ġsand": 5123,
      "Ġcust": 5124,
      "ano": 5125,
      "Ġreaction": 5126,
      "Ġlaid": 5127,
      "ĠMatt": 5128,
      "ĠPet": 5129,
      "ĠRog": 5130,
      "Ġconvers": 5131,
      "ersey": 5132,
      "agement": 5133,
      "Ġrise": 5134,
      "ella": 5135,
      "Ġ46": 5136,
      "Ġagricult": 5137,
      "Ġspect": 5138,
      "icks": 5139,
      "amese": 5140,
      "Ġflank": 5141,
      "Ġ1981": 5142,
      "Ġstarts": 5143,
      "Ġlanding": 5144,
      "Ġguest": 5145,
      "heless": 5146,
      "Ġaccompan": 5147,
      "ĠVietnamese": 5148,
      "ĠJeff": 5149,
      "Ġnucleus": 5150,
      "Ġsustained": 5151,
      "eer": 5152,
      "Ġtim": 5153,
      "Ġtact": 5154,
      "Ġfought": 5155,
      "isy": 5156,
      "Ġdated": 5157,
      "ĠCamb": 5158,
      "Ġbeaut": 5159,
      "Ġge": 5160,
      "ĠBost": 5161,
      "ĠHart": 5162,
      "ĠHaven": 5163,
      "ulate": 5164,
      "ĠGulf": 5165,
      "Ġrival": 5166,
      "ĠStan": 5167,
      "ieut": 5168,
      "izing": 5169,
      "ographer": 5170,
      "Ġdelay": 5171,
      "ĠAmong": 5172,
      "Ġcastle": 5173,
      "Ġstrik": 5174,
      "Ġcurrently": 5175,
      "Ġemployed": 5176,
      "clusion": 5177,
      "Ġfamilies": 5178,
      "ĠThunderbirds": 5179,
      "Ġphilos": 5180,
      "ĠCambod": 5181,
      "che": 5182,
      "crib": 5183,
      "ees": 5184,
      "heastern": 5185,
      "inity": 5186,
      "Ġouter": 5187,
      "ĠAthlet": 5188,
      "omy": 5189,
      "ads": 5190,
      "ĠLine": 5191,
      "Ġrating": 5192,
      "Ġvirt": 5193,
      "apt": 5194,
      "appe": 5195,
      "Ġtrain": 5196,
      "Ġcontained": 5197,
      "Ġarms": 5198,
      "Ġ41": 5199,
      "ansion": 5200,
      "Ġ700": 5201,
      "Ġunderground": 5202,
      "Ġends": 5203,
      "Ġsupply": 5204,
      "Ġ1939": 5205,
      "Ġprompt": 5206,
      "Ġdrive": 5207,
      "Ġtrial": 5208,
      "Ġphase": 5209,
      "Ġfacilities": 5210,
      "ĠSlam": 5211,
      "Ġfrequently": 5212,
      "Ġbudget": 5213,
      "RA": 5214,
      "lines": 5215,
      "rain": 5216,
      "Ġtree": 5217,
      "Ġsave": 5218,
      "itable": 5219,
      "Ġfict": 5220,
      "Ġbank": 5221,
      "Ġdrop": 5222,
      "Ġreform": 5223,
      "ĠSat": 5224,
      "ĠChe": 5225,
      "iring": 5226,
      "ĠFestival": 5227,
      "ĠNaz": 5228,
      "ĠGi": 5229,
      "ĠGirl": 5230,
      "ĠLes": 5231,
      "ĠOp": 5232,
      "ĠUl": 5233,
      "Ġcontact": 5234,
      "Ġcontributed": 5235,
      "Ġunus": 5236,
      "Ġspring": 5237,
      "ĠAnth": 5238,
      "Ġactors": 5239,
      "orney": 5240,
      "Ġ1942": 5241,
      "insula": 5242,
      "Ġallows": 5243,
      "Ġreflect": 5244,
      "Ġcollected": 5245,
      "ĠPho": 5246,
      "Ġfinds": 5247,
      "Ġnegative": 5248,
      "Ġexecutive": 5249,
      "rupt": 5250,
      "Ġsilver": 5251,
      "Ġclean": 5252,
      "Ġdegree": 5253,
      "ĠRevolution": 5254,
      "Ġbottom": 5255,
      "ĠOxford": 5256,
      "ĠGordon": 5257,
      "yond": 5258,
      "onent": 5259,
      "Ġsen": 5260,
      "Ġcited": 5261,
      "Ġfresh": 5262,
      "standing": 5263,
      "amic": 5264,
      "Ġbeyond": 5265,
      "olved": 5266,
      "ĠFriend": 5267,
      "ĠDen": 5268,
      "ĠNBA": 5269,
      "aved": 5270,
      "ĠEnd": 5271,
      "illo": 5272,
      "Ġshaped": 5273,
      "Ġcomputer": 5274,
      "angers": 5275,
      "ĠSha": 5276,
      "Ġopera": 5277,
      "Ġ130": 5278,
      "Ġ1918": 5279,
      "ĠUSA": 5280,
      "Ġeffective": 5281,
      "Ġentirely": 5282,
      "Ġanimals": 5283,
      "Ġimproved": 5284,
      "Ġsubsequent": 5285,
      "ĠCoast": 5286,
      "ĠStudios": 5287,
      "ĠBetween": 5288,
      "ĠTurner": 5289,
      "ĠCrazy": 5290,
      "ĠEntertainment": 5291,
      "ĠPremier": 5292,
      "ieutenant": 5293,
      "uccess": 5294,
      "Ġbow": 5295,
      "alle": 5296,
      "asc": 5297,
      "Ġmob": 5298,
      "Ġdraft": 5299,
      "Ġgain": 5300,
      "Ġgives": 5301,
      "thur": 5302,
      "ĠWork": 5303,
      "ĠObs": 5304,
      "Ġnotable": 5305,
      "Ġrecently": 5306,
      "Ġ54": 5307,
      "ansas": 5308,
      "ĠMario": 5309,
      "ropium": 5310,
      "Ġ1968": 5311,
      "Ġ1969": 5312,
      "Ġexpress": 5313,
      "Ġsimple": 5314,
      "ashion": 5315,
      "Ġextensive": 5316,
      "ĠMuslim": 5317,
      "Ġmedical": 5318,
      "ĠBoise": 5319,
      "Ġfinding": 5320,
      "ushing": 5321,
      "Ġgradually": 5322,
      "ĠToday": 5323,
      "ĠLewis": 5324,
      "Ġkilometres": 5325,
      "ĠBoston": 5326,
      "cy": 5327,
      "Ġdates": 5328,
      "Ġegg": 5329,
      "ĠCold": 5330,
      "ĠChel": 5331,
      "iments": 5332,
      "Ġstages": 5333,
      "ĠPen": 5334,
      "ĠDer": 5335,
      "ĠGard": 5336,
      "ĠJain": 5337,
      "sea": 5338,
      "Ġ57": 5339,
      "Ġfinals": 5340,
      "Ġsecondary": 5341,
      "ocked": 5342,
      "ĠLeg": 5343,
      "Ġsevere": 5344,
      "Ġ179": 5345,
      "Ġ1975": 5346,
      "Ġexpanded": 5347,
      "azz": 5348,
      "Ġserving": 5349,
      "ĠPeople": 5350,
      "Ġantimony": 5351,
      "Ġprograms": 5352,
      "ĠRussian": 5353,
      "ĠMartin": 5354,
      "cel": 5355,
      "ki": 5356,
      "rong": 5357,
      "Ġtail": 5358,
      "unte": 5359,
      "Ġcamer": 5360,
      "ishes": 5361,
      "Ġbit": 5362,
      "Ġham": 5363,
      "ĠSo": 5364,
      "stead": 5365,
      "ĠCre": 5366,
      "ĠCole": 5367,
      "ĠRail": 5368,
      "Ġitems": 5369,
      "ĠGreg": 5370,
      "ĠJes": 5371,
      "Ġcomes": 5372,
      "ĠKey": 5373,
      "Ġcomposition": 5374,
      "Ġboat": 5375,
      "weet": 5376,
      "Ġcenturies": 5377,
      "Ġ800": 5378,
      "Ġ1965": 5379,
      "Ġ1974": 5380,
      "Ġoccas": 5381,
      "ĠEvita": 5382,
      "Ġcorre": 5383,
      "ĠMagazine": 5384,
      "ĠSystem": 5385,
      "Ġoccupied": 5386,
      "ĠTurk": 5387,
      "ĠUpon": 5388,
      "ĠDemocr": 5389,
      "iations": 5390,
      "ero": 5391,
      "Ġwed": 5392,
      "unction": 5393,
      "unicip": 5394,
      "Ġmo": 5395,
      "Ġmig": 5396,
      "icc": 5397,
      "Ġdaily": 5398,
      "ĠSund": 5399,
      "Ġnaval": 5400,
      "ura": 5401,
      "urches": 5402,
      "ĠId": 5403,
      "ĠDomin": 5404,
      "Ġchair": 5405,
      "berg": 5406,
      "udd": 5407,
      "rence": 5408,
      "oys": 5409,
      "Ġfloor": 5410,
      "Ġsole": 5411,
      "Ġmush": 5412,
      "hess": 5413,
      "Ġdecades": 5414,
      "ancing": 5415,
      "ĠJuan": 5416,
      "Ġdeaths": 5417,
      "Ġcriticism": 5418,
      "Ġfarm": 5419,
      "Ġsuccessfully": 5420,
      "Ġlosses": 5421,
      "Ã¡nh": 5422,
      "ĠCommander": 5423,
      "Ġtreatment": 5424,
      "ĠKhÃ¡nh": 5425,
      "Ġslowly": 5426,
      "Ġindependence": 5427,
      "Ġcommissioned": 5428,
      "Ġexperienced": 5429,
      "Äģda": 5430,
      "Ġfictional": 5431,
      "kin": 5432,
      "ket": 5433,
      "ux": 5434,
      "inem": 5435,
      "Ġsquad": 5436,
      "Ġod": 5437,
      "Ġdial": 5438,
      "ĠAvenue": 5439,
      "aming": 5440,
      "ĠRy": 5441,
      "ĠRome": 5442,
      "ĠFox": 5443,
      "uli": 5444,
      "ĠKir": 5445,
      "ĠStone": 5446,
      "Ġrow": 5447,
      "ĠBridge": 5448,
      "anny": 5449,
      "Ġdidn": 5450,
      "Ġvisual": 5451,
      "Ġsentence": 5452,
      "Ġpersonnel": 5453,
      "Ġengaged": 5454,
      "Ġmyth": 5455,
      "ĠSongs": 5456,
      "ĠCrown": 5457,
      "ĠMacLe": 5458,
      "Ġpurchased": 5459,
      "ĠJamal": 5460,
      "Ġpolicy": 5461,
      "ĠDaniel": 5462,
      "Ġfaith": 5463,
      "ĠJurc": 5464,
      "TC": 5465,
      "hat": 5466,
      "yson": 5467,
      "Ġbass": 5468,
      "iced": 5469,
      "Ġec": 5470,
      "lywood": 5471,
      "lyss": 5472,
      "ĠBart": 5473,
      "ĠBrian": 5474,
      "ĠDo": 5475,
      "ĠLl": 5476,
      "Ġchorus": 5477,
      "Ġunp": 5478,
      "ĠAlf": 5479,
      "Ġsports": 5480,
      "Ġprefer": 5481,
      "Ġ96": 5482,
      "Ġcoal": 5483,
      "Ġcool": 5484,
      "Ġ164": 5485,
      "ĠScience": 5486,
      "Ġ1946": 5487,
      "ĠIsab": 5488,
      "Ġconcrete": 5489,
      "Ġsouthwest": 5490,
      "Ġworldwide": 5491,
      "ĠProv": 5492,
      "Ġcaptain": 5493,
      "Ġpropos": 5494,
      "Ġdeclined": 5495,
      "Ġprotagon": 5496,
      "Ġbegun": 5497,
      "Ġreasons": 5498,
      "Ġnegot": 5499,
      "borough": 5500,
      "ategory": 5501,
      "Ġbriefly": 5502,
      "Ġattract": 5503,
      "ĠTennyson": 5504,
      "Ġchalleng": 5505,
      "ĠThroughout": 5506,
      "ĠDistrict": 5507,
      "bl": 5508,
      "fort": 5509,
      "pet": 5510,
      "Ġfat": 5511,
      "Ġdrawn": 5512,
      "Ġeas": 5513,
      "Ġbeach": 5514,
      "ĠMic": 5515,
      "ĠDubl": 5516,
      "ĠNH": 5517,
      "Ġexclus": 5518,
      "ĠUN": 5519,
      "ĠKn": 5520,
      "Ġnote": 5521,
      "ĠVill": 5522,
      "perial": 5523,
      "ĠAlso": 5524,
      "Ġ73": 5525,
      "Ġ95": 5526,
      "Ġflag": 5527,
      "Ġmoves": 5528,
      "Ġnothing": 5529,
      "Ġincident": 5530,
      "Ġconcer": 5531,
      "ĠProject": 5532,
      "Ġorganiz": 5533,
      "Ġimportance": 5534,
      "Ġroads": 5535,
      "Ġelimin": 5536,
      "ĠBarb": 5537,
      "ĠSimone": 5538,
      "Ġescape": 5539,
      "ĠLiu": 5540,
      "uccessful": 5541,
      "ĠDublin": 5542,
      "iro": 5543,
      "iences": 5544,
      "rang": 5545,
      "Ġ#": 5546,
      "Ġworship": 5547,
      "Ġfur": 5548,
      "Ġhired": 5549,
      "Ġrend": 5550,
      "Ġnor": 5551,
      "ĠCy": 5552,
      "ĠCub": 5553,
      "ĠIgu": 5554,
      "ĠBru": 5555,
      "Ġstreet": 5556,
      "ĠHy": 5557,
      "ĠDun": 5558,
      "ĠLiber": 5559,
      "quake": 5560,
      "ĠKa": 5561,
      "ĠKang": 5562,
      "Ġarc": 5563,
      "ĠHead": 5564,
      "aret": 5565,
      "Ġtend": 5566,
      "Ġ61": 5567,
      "Ġfoundation": 5568,
      "Ġdecade": 5569,
      "Ġlongest": 5570,
      "Ġ1966": 5571,
      "Ġ1952": 5572,
      "Ġ1919": 5573,
      "Ġpossibility": 5574,
      "Ġarrival": 5575,
      "ĠProt": 5576,
      "Ġfavour": 5577,
      "Ġhyd": 5578,
      "chers": 5579,
      "Ġbillion": 5580,
      "Ġchapter": 5581,
      "Ġparticipated": 5582,
      "Ġcalc": 5583,
      "Ġfirm": 5584,
      "Ġenjoyed": 5585,
      "ĠArea": 5586,
      "ĠTemple": 5587,
      "Ġwitness": 5588,
      "Ġresponded": 5589,
      "ĠProduction": 5590,
      "ĠFamily": 5591,
      "Ġpaintings": 5592,
      "Ġaccompanied": 5593,
      "Ġtall": 5594,
      "Ġtheat": 5595,
      "Ġwides": 5596,
      "Ġpul": 5597,
      "Ġmist": 5598,
      "Ġlabor": 5599,
      "ĠMem": 5600,
      "Ġgas": 5601,
      "ĠBas": 5602,
      "Ġstret": 5603,
      "ayer": 5604,
      "ĠRet": 5605,
      "ĠFive": 5606,
      "ĠGA": 5607,
      "Ġheard": 5608,
      "ĠEll": 5609,
      "apes": 5610,
      "ĠUlyss": 5611,
      "iance": 5612,
      "ĠChart": 5613,
      "ĠChains": 5614,
      "ĠAli": 5615,
      "izes": 5616,
      "Ġneck": 5617,
      "Ġ97": 5618,
      "ĠMaria": 5619,
      "Ġapplic": 5620,
      "Ġsetting": 5621,
      "Ġsurre": 5622,
      "Ġdeveloping": 5623,
      "Ġ177": 5624,
      "Ġowners": 5625,
      "Ġ1936": 5626,
      "Ġguard": 5627,
      "Ġoldest": 5628,
      "Ġglob": 5629,
      "Ġagreement": 5630,
      "ĠGovernor": 5631,
      "Ġdollar": 5632,
      "Ġnormal": 5633,
      "Ġplatform": 5634,
      "Ġroughly": 5635,
      "ĠDevelopment": 5636,
      "Ġsenior": 5637,
      "ĠMacLeod": 5638,
      "ĠUlysses": 5639,
      "chest": 5640,
      "iable": 5641,
      "ls": 5642,
      "pread": 5643,
      "Ġhor": 5644,
      "ĠAer": 5645,
      "ĠCD": 5646,
      "ĠMur": 5647,
      "Ġgreen": 5648,
      "ĠBand": 5649,
      "ĠBaby": 5650,
      "ĠRon": 5651,
      "ĠFall": 5652,
      "ĠEs": 5653,
      "istan": 5654,
      "ĠInstead": 5655,
      "Ġchoice": 5656,
      "Ġremn": 5657,
      "Ġconsists": 5658,
      "Ġvert": 5659,
      "Ġacad": 5660,
      "Ġaccident": 5661,
      "Ġadding": 5662,
      "Ġpopulations": 5663,
      "Ġ1973": 5664,
      "ĠIsl": 5665,
      "ĠAdmir": 5666,
      "Ġlasted": 5667,
      "Ġtrip": 5668,
      "ĠBoard": 5669,
      "Ġcombination": 5670,
      "Ġskin": 5671,
      "Ġtechnology": 5672,
      "Ġexistence": 5673,
      "Ġregarding": 5674,
      "Ġviolence": 5675,
      "Ġpoetry": 5676,
      "Ġdominated": 5677,
      "ĠFrancisc": 5678,
      "Ġathletes": 5679,
      "ĠDougl": 5680,
      "ĠAnthony": 5681,
      "ĠTurkish": 5682,
      "iot": 5683,
      "rem": 5684,
      "Ġsn": 5685,
      "eda": 5686,
      "ĠSus": 5687,
      "Ġeth": 5688,
      "adow": 5689,
      "ĠTheatre": 5690,
      "ĠMat": 5691,
      "ĠMod": 5692,
      "iday": 5693,
      "usal": 5694,
      "Ġisol": 5695,
      "ager": 5696,
      "umpt": 5697,
      "Ġcomic": 5698,
      "antly": 5699,
      "gend": 5700,
      "Ġreserv": 5701,
      "Ġspons": 5702,
      "Ġcommittee": 5703,
      "Ġfilming": 5704,
      "Ġacres": 5705,
      "Ġapplied": 5706,
      "Ġsubmar": 5707,
      "Ġcalls": 5708,
      "Ġperforming": 5709,
      "Ġ1967": 5710,
      "ĠTeam": 5711,
      "Ġcollege": 5712,
      "Ġclubs": 5713,
      "Ġcompetitions": 5714,
      "Ġassociation": 5715,
      "Ġclosely": 5716,
      "Ġresear": 5717,
      "Ġexisting": 5718,
      "Ġunsuccessful": 5719,
      "Ġhabitat": 5720,
      "Ġweakened": 5721,
      "ĠIguan": 5722,
      "come": 5723,
      "rum": 5724,
      "Ġaer": 5725,
      "era": 5726,
      "aton": 5727,
      "isers": 5728,
      "aser": 5729,
      "ĠAston": 5730,
      "ĠMov": 5731,
      "ĠMountain": 5732,
      "Ġaltar": 5733,
      "resp": 5734,
      "Ġperhaps": 5735,
      "Ġoverl": 5736,
      "Ġneither": 5737,
      "Ġ62": 5738,
      "ĠMarl": 5739,
      "Ġundert": 5740,
      "Ġinteract": 5741,
      "Ġappeal": 5742,
      "Ġdecre": 5743,
      "Ġcapable": 5744,
      "Ġtransit": 5745,
      "Ġ110": 5746,
      "Ġdistingu": 5747,
      "Ġprovides": 5748,
      "Ġ1914": 5749,
      "Ġbattalions": 5750,
      "Ġserves": 5751,
      "Ġgreatly": 5752,
      "ĠPhill": 5753,
      "Ġdetails": 5754,
      "Ġpainting": 5755,
      "Ġarchaeological": 5756,
      "Ġderived": 5757,
      "Ġlearned": 5758,
      "Ġtells": 5759,
      "Ġreinforce": 5760,
      "Ġpilot": 5761,
      "Ġpurpose": 5762,
      "Ġadministration": 5763,
      "Ġopportunity": 5764,
      "Ġbenef": 5765,
      "Ġceremony": 5766,
      "Ġoccasionally": 5767,
      "aver": 5768,
      "ection": 5769,
      "set": 5770,
      "Ġsort": 5771,
      "Ġfellow": 5772,
      "Ġbought": 5773,
      "Ġdance": 5774,
      "Ġthing": 5775,
      "ĠAri": 5776,
      "ĠAML": 5777,
      "Ġones": 5778,
      "ĠMen": 5779,
      "ĠBishop": 5780,
      "ĠDota": 5781,
      "ĠGab": 5782,
      "Ġseat": 5783,
      "opes": 5784,
      "ichol": 5785,
      "Ġchurches": 5786,
      "Ġcontrib": 5787,
      "Ġreconst": 5788,
      "ĠAlbert": 5789,
      "Ġdescend": 5790,
      "ibbe": 5791,
      "Ġspeaking": 5792,
      "ĠAnonymous": 5793,
      "Ġ85": 5794,
      "Ġsupposed": 5795,
      "Ġsurvey": 5796,
      "pring": 5797,
      "Ġinvited": 5798,
      "Ġreceiving": 5799,
      "ĠCaribbe": 5800,
      "Ġeditor": 5801,
      "Ġheaded": 5802,
      "ĠAdv": 5803,
      "Ġstoryline": 5804,
      "Ġbasket": 5805,
      "Ġtowns": 5806,
      "Ġparalle": 5807,
      "Ġtechnique": 5808,
      "Ġsufficient": 5809,
      "Ġencounter": 5810,
      "ĠOde": 5811,
      "ĠBraz": 5812,
      "Ġinnings": 5813,
      "Ġfilled": 5814,
      "Ġvehicles": 5815,
      "Ġdissipated": 5816,
      "ĠHornung": 5817,
      "ĠChelsea": 5818,
      "ĠDouglas": 5819,
      "ĠCaribbean": 5820,
      "uate": 5821,
      "Ġut": 5822,
      "Ġton": 5823,
      "inner": 5824,
      "erc": 5825,
      "Ġsom": 5826,
      "ato": 5827,
      "Ġfashion": 5828,
      "Ġdrew": 5829,
      "amy": 5830,
      "lying": 5831,
      "ules": 5832,
      "ĠLife": 5833,
      "ĠLieutenant": 5834,
      "Ġseg": 5835,
      "ĠERA": 5836,
      "Ġplum": 5837,
      "ĠKenn": 5838,
      "ĠStew": 5839,
      "ĠStep": 5840,
      "Ġ71": 5841,
      "ĠAsia": 5842,
      "ĠLeon": 5843,
      "Ġdoor": 5844,
      "Ġgoes": 5845,
      "Ġ1945": 5846,
      "Ġ1971": 5847,
      "Ġbranch": 5848,
      "Ġreceive": 5849,
      "Ġdepict": 5850,
      "Ġanything": 5851,
      "pective": 5852,
      "Ġclassified": 5853,
      "ographic": 5854,
      "Ġviewed": 5855,
      "ĠPerry": 5856,
      "ĠGeorg": 5857,
      "ĠAbout": 5858,
      "Ġislands": 5859,
      "Ġtypical": 5860,
      "Ġsurvived": 5861,
      "ÃŃa": 5862,
      "Ġmassive": 5863,
      "Ġaccompl": 5864,
      "ĠCardinal": 5865,
      "Ġstopped": 5866,
      "ĠMaeda": 5867,
      "ructure": 5868,
      "Ġdrama": 5869,
      "Ġsymbol": 5870,
      "ĠConstantine": 5871,
      "ĠHibari": 5872,
      "ĠSummer": 5873,
      "Ġastron": 5874,
      "Ġwidespread": 5875,
      "hu": 5876,
      "pson": 5877,
      "ruli": 5878,
      "win": 5879,
      "Ġaim": 5880,
      "Ġsail": 5881,
      "Ġcrop": 5882,
      "arian": 5883,
      "ala": 5884,
      "ications": 5885,
      "ĠAge": 5886,
      "ĠMTV": 5887,
      "uting": 5888,
      "Ġwhy": 5889,
      "ĠRol": 5890,
      "ĠRod": 5891,
      "agle": 5892,
      "Ġring": 5893,
      "Ġrif": 5894,
      "Ġshared": 5895,
      "Ġtruth": 5896,
      "Ġtrying": 5897,
      "usted": 5898,
      "rait": 5899,
      "Ġ59": 5900,
      "Ġflights": 5901,
      "Ġassass": 5902,
      "Ġacid": 5903,
      "Ġquot": 5904,
      "Ġpoly": 5905,
      "Ġ1982": 5906,
      "ĠWhat": 5907,
      "Ġdistrict": 5908,
      "ĠConst": 5909,
      "ĠQedar": 5910,
      "Ġprotection": 5911,
      "Ġauthors": 5912,
      "ĠBrook": 5913,
      "ĠRomani": 5914,
      "ĠGeorgian": 5915,
      "ĠSimon": 5916,
      "ĠStev": 5917,
      "Ġhousehold": 5918,
      "Ġmissing": 5919,
      "Ġmotion": 5920,
      "ĠGolden": 5921,
      "glades": 5922,
      "Ġsynt": 5923,
      "Ġsettlers": 5924,
      "Ġacquired": 5925,
      "Ġdigital": 5926,
      "Ġsafety": 5927,
      "Ġsoutheast": 5928,
      "Ġrepeated": 5929,
      "ĠFantasy": 5930,
      "Ġconverted": 5931,
      "ibrary": 5932,
      "ati": 5933,
      "Ġha": 5934,
      "ĠTra": 5935,
      "entially": 5936,
      "ĠBond": 5937,
      "ĠBull": 5938,
      "idges": 5939,
      "utation": 5940,
      "ĠRio": 5941,
      "ĠFre": 5942,
      "ĠJud": 5943,
      "iston": 5944,
      "ĠIng": 5945,
      "essed": 5946,
      "ĠUr": 5947,
      "ips": 5948,
      "ĠStadium": 5949,
      "uble": 5950,
      "Ġroutes": 5951,
      "Ġroof": 5952,
      "Ġspacing": 5953,
      "Ġfinish": 5954,
      "Ġevac": 5955,
      "issance": 5956,
      "Ġsubstant": 5957,
      "cki": 5958,
      "Ġlocations": 5959,
      "Ġ160": 5960,
      "Ġ1976": 5961,
      "Ġdepicted": 5962,
      "Ġ1956": 5963,
      "Ġ1913": 5964,
      "Ġ1916": 5965,
      "Ġturns": 5966,
      "Ġexperiment": 5967,
      "Ġplanning": 5968,
      "Ġwatched": 5969,
      "Ġholding": 5970,
      "Ġbaseball": 5971,
      "Ġfunding": 5972,
      "Ġfocused": 5973,
      "ĠOslo": 5974,
      "ĠMoz": 5975,
      "Ġarranged": 5976,
      "ĠHaiti": 5977,
      "Ġsucceeded": 5978,
      "ĠRadio": 5979,
      "ĠFreder": 5980,
      "Ġpermanent": 5981,
      "Ġopinion": 5982,
      "ĠShortly": 5983,
      "Ġatmosphere": 5984,
      "Ġwedding": 5985,
      "VN": 5986,
      "ture": 5987,
      "tty": 5988,
      "Ġi": 5989,
      "Ġign": 5990,
      "inn": 5991,
      "Ġfuel": 5992,
      "Ġbul": 5993,
      "Ġbowl": 5994,
      "Ġindu": 5995,
      "Ġdub": 5996,
      "ĠTim": 5997,
      "ĠCa": 5998,
      "acity": 5999,
      "ĠRow": 6000,
      "ĠJones": 6001,
      "ĠOh": 6002,
      "Ġcho": 6003,
      "Ġchance": 6004,
      "Ġchannel": 6005,
      "Ġexact": 6006,
      "iege": 6007,
      "Ġresident": 6008,
      "Ġ72": 6009,
      "Ġknew": 6010,
      "Ġ81": 6011,
      "Ġdefined": 6012,
      "ifications": 6013,
      "Ġ1943": 6014,
      "Ġ175": 6015,
      "Ġproviding": 6016,
      "ĠAllied": 6017,
      "Ġiniti": 6018,
      "Ġreality": 6019,
      "bridge": 6020,
      "Ġdecline": 6021,
      "Ġcorresp": 6022,
      "idden": 6023,
      "Ġcreator": 6024,
      "Ġpenalty": 6025,
      "Ġearthquake": 6026,
      "Ġcredited": 6027,
      "hetic": 6028,
      "ĠVenus": 6029,
      "ĠIguanodon": 6030,
      "ĠBrazil": 6031,
      "Ġcorrespond": 6032,
      "GN": 6033,
      "eed": 6034,
      "ky": 6035,
      "uan": 6036,
      "Ġtied": 6037,
      "indu": 6038,
      "Ġwins": 6039,
      "Ġinner": 6040,
      "Ġmic": 6041,
      "Ġdating": 6042,
      "ĠAst": 6043,
      "stances": 6044,
      "Ġeu": 6045,
      "ĠIGN": 6046,
      "ivered": 6047,
      "ĠHindu": 6048,
      "ĠRangers": 6049,
      "ĠDream": 6050,
      "ĠGully": 6051,
      "ĠLenn": 6052,
      "agre": 6053,
      "Ġrich": 6054,
      "okes": 6055,
      "Ġjack": 6056,
      "Ġpregn": 6057,
      "ĠArts": 6058,
      "Ġ94": 6059,
      "awa": 6060,
      "Ġcharter": 6061,
      "Ġflu": 6062,
      "Ġassemb": 6063,
      "Ġgrav": 6064,
      "Ġsupplies": 6065,
      "Ġ1963": 6066,
      "Ġ112": 6067,
      "Ġdownlo": 6068,
      "Ġairport": 6069,
      "Ġheads": 6070,
      "Ġ250": 6071,
      "Ġways": 6072,
      "Ġexplos": 6073,
      "Ġdelivered": 6074,
      "Ġlaws": 6075,
      "Ġglass": 6076,
      "Ġseparated": 6077,
      "Ġrenamed": 6078,
      "ĠEverglades": 6079,
      "Ġthousands": 6080,
      "ĠSecretary": 6081,
      "ĠMorrison": 6082,
      "ĠAdditionally": 6083,
      "uilding": 6084,
      "ĠPhoen": 6085,
      "ĠStevens": 6086,
      "Å¡": 6087,
      "Ġice": 6088,
      "inated": 6089,
      "Ġwick": 6090,
      "Ġcit": 6091,
      "itan": 6092,
      "isf": 6093,
      "Ġeyes": 6094,
      "ĠBh": 6095,
      "ĠHomer": 6096,
      "ĠRun": 6097,
      "anda": 6098,
      "ĠGre": 6099,
      "ĠGram": 6100,
      "ĠLuc": 6101,
      "estone": 6102,
      "Ġrac": 6103,
      "Ġrural": 6104,
      "sey": 6105,
      "ĠUTC": 6106,
      "iece": 6107,
      "Ġrose": 6108,
      "outs": 6109,
      "Ġteaching": 6110,
      "Ġoverse": 6111,
      "Ġsecure": 6112,
      "Ġregime": 6113,
      "Ġemperor": 6114,
      "Ġ176": 6115,
      "ĠAustralians": 6116,
      "ĠCommittee": 6117,
      "Ġturning": 6118,
      "Ġcommanded": 6119,
      "Ġopposition": 6120,
      "ĠBroad": 6121,
      "ĠSimilar": 6122,
      "Ġcertified": 6123,
      "Ġinspir": 6124,
      "Ġremainder": 6125,
      "Ġindicate": 6126,
      "ĠOffice": 6127,
      "Ġconsisting": 6128,
      "ĠHollywood": 6129,
      "ĠBradford": 6130,
      "ĠArchae": 6131,
      "ĠAlexander": 6132,
      "Ġinstrument": 6133,
      "ĠColumbia": 6134,
      "Ġsplit": 6135,
      "ĠFriends": 6136,
      "ĠSunday": 6137,
      "BS": 6138,
      "RE": 6139,
      "gÃ©": 6140,
      "jillo": 6141,
      "pany": 6142,
      "rons": 6143,
      "Ġurban": 6144,
      "Ġaware": 6145,
      "Ġdog": 6146,
      "Ġdru": 6147,
      "ĠSap": 6148,
      "Ġeld": 6149,
      "ĠCle": 6150,
      "igation": 6151,
      "ĠHoly": 6152,
      "ĠPers": 6153,
      "ĠPatt": 6154,
      "ĠNative": 6155,
      "ĠGang": 6156,
      "ĠLy": 6157,
      "Ġattached": 6158,
      "Ġ77": 6159,
      "ĠMarine": 6160,
      "Ġcolour": 6161,
      "Ġnoisy": 6162,
      "Ġquite": 6163,
      "ologists": 6164,
      "Ġhighlight": 6165,
      "Ġaddress": 6166,
      "Ġ1978": 6167,
      "Ġoccurs": 6168,
      "Ġ1953": 6169,
      "Ġcourts": 6170,
      "Ġreferences": 6171,
      "Ġaffect": 6172,
      "Ġtechnical": 6173,
      "Ġvalley": 6174,
      "Ġrevolution": 6175,
      "ĠMaryland": 6176,
      "Ġeconomy": 6177,
      "Ġestablishment": 6178,
      "Ġassistance": 6179,
      "ĠMontana": 6180,
      "Ġjourney": 6181,
      "ĠCroatian": 6182,
      "ĠCritical": 6183,
      "Ġpowers": 6184,
      "ĠDirector": 6185,
      "ĠTrujillo": 6186,
      "Ġdrug": 6187,
      "lik": 6188,
      "ĪĴ": 6189,
      "Ġtable": 6190,
      "inosaur": 6191,
      "Ġpet": 6192,
      "Ġdry": 6193,
      "ilton": 6194,
      "Ġlin": 6195,
      "ela": 6196,
      "ĠBern": 6197,
      "ider": 6198,
      "ĠHan": 6199,
      "ĠDown": 6200,
      "apers": 6201,
      "ewhere": 6202,
      "ighter": 6203,
      "aked": 6204,
      "ĠâĪĴ": 6205,
      "Ġleaves": 6206,
      "ĠChronic": 6207,
      "Ġresist": 6208,
      "ĠAlan": 6209,
      "ressive": 6210,
      "Ġfinishing": 6211,
      "issipp": 6212,
      "ĠArthur": 6213,
      "Ġinterior": 6214,
      "Ġstudied": 6215,
      "Ġleads": 6216,
      "Ġdisturb": 6217,
      "Ġdistribution": 6218,
      "Ġreputation": 6219,
      "Ġsuccessor": 6220,
      "ĠRoxas": 6221,
      "Ġviews": 6222,
      "ivalent": 6223,
      "ĠMississipp": 6224,
      "Ġsurviv": 6225,
      "Ġproducing": 6226,
      "Ġmissions": 6227,
      "ĠWalter": 6228,
      "Ġdenied": 6229,
      "Ġadapted": 6230,
      "Ġshooting": 6231,
      "Ġmethods": 6232,
      "Ġportrayed": 6233,
      "ĠCharlie": 6234,
      "ĠEngineer": 6235,
      "Ġstrengthen": 6236,
      "ĠMississippi": 6237,
      "ych": 6238,
      "Ġsle": 6239,
      "Ġhall": 6240,
      "ĠSub": 6241,
      "Ġlane": 6242,
      "uration": 6243,
      "ĠBur": 6244,
      "ĠRel": 6245,
      "ĠWind": 6246,
      "andy": 6247,
      "ĠLow": 6248,
      "agues": 6249,
      "Ġrub": 6250,
      "rier": 6251,
      "ifying": 6252,
      "Ġsud": 6253,
      "ardo": 6254,
      "Ġkits": 6255,
      "ĠKil": 6256,
      "Ġrob": 6257,
      "Ġoffense": 6258,
      "Ġupd": 6259,
      "Ġprey": 6260,
      "Ġgameplay": 6261,
      "Ġentry": 6262,
      "Ġentering": 6263,
      "Ġmaintain": 6264,
      "Ġcharacteristics": 6265,
      "Ġ1915": 6266,
      "Ġcamps": 6267,
      "Ġprotected": 6268,
      "Ġcrime": 6269,
      "ĠWithin": 6270,
      "Ġpolitics": 6271,
      "Ġgetting": 6272,
      "ĠRecording": 6273,
      "ĠActivision": 6274,
      "ĠHoward": 6275,
      "Ġimmig": 6276,
      "senal": 6277,
      "ĠSamuel": 6278,
      "Ġworst": 6279,
      "Ġdismissed": 6280,
      "Ġintelligence": 6281,
      "OT": 6282,
      "SB": 6283,
      "born": 6284,
      "hi": 6285,
      "kins": 6286,
      "Ġcrown": 6287,
      "Ġpuzz": 6288,
      "ĠSnow": 6289,
      "ador": 6290,
      "ĠMul": 6291,
      "Ġstones": 6292,
      "ĠHon": 6293,
      "ĠHug": 6294,
      "ette": 6295,
      "ĠRidge": 6296,
      "osa": 6297,
      "ĠLu": 6298,
      "ĠJac": 6299,
      "ĠJay": 6300,
      "ĠEdu": 6301,
      "Ġvon": 6302,
      "Ġexerc": 6303,
      "Ġnoting": 6304,
      "ipl": 6305,
      "ells": 6306,
      "Ġattributed": 6307,
      "Ġknots": 6308,
      "Ġ98": 6309,
      "ĠMarsh": 6310,
      "Ġcharges": 6311,
      "ropri": 6312,
      "Ġcapacity": 6313,
      "Ġmonarch": 6314,
      "Ġmonument": 6315,
      "ĠPlunk": 6316,
      "Ġclasses": 6317,
      "Ġreplace": 6318,
      "Ġbasin": 6319,
      "Ġfranch": 6320,
      "Ġnovels": 6321,
      "ĠStef": 6322,
      "Ġcharts": 6323,
      "Ġintroduction": 6324,
      "Ġinterested": 6325,
      "ĠCalvert": 6326,
      "Ġholds": 6327,
      "offman": 6328,
      "Ġdiscussed": 6329,
      "Ġdollars": 6330,
      "Ġmushroom": 6331,
      "ĠIsabella": 6332,
      "ecess": 6333,
      "host": 6334,
      "town": 6335,
      "var": 6336,
      "erog": 6337,
      "Ġworth": 6338,
      "Ġcab": 6339,
      "enge": 6340,
      "Ġbaby": 6341,
      "Ġpal": 6342,
      "Ġpound": 6343,
      "Ġmort": 6344,
      "icial": 6345,
      "Ġdie": 6346,
      "ĠSound": 6347,
      "Ġlic": 6348,
      "elve": 6349,
      "ĠML": 6350,
      "ivity": 6351,
      "ĠPope": 6352,
      "ĠFar": 6353,
      "ĠDar": 6354,
      "ĠDNA": 6355,
      "ĠDanny": 6356,
      "ĠWall": 6357,
      "ĠNBC": 6358,
      "ĠJersey": 6359,
      "Ġsector": 6360,
      "rien": 6361,
      "Ġvic": 6362,
      "Ġvary": 6363,
      "Ġvision": 6364,
      "opher": 6365,
      "ameter": 6366,
      "ources": 6367,
      "Ġagent": 6368,
      "Ġoffers": 6369,
      "angerous": 6370,
      "Ġ66": 6371,
      "Ġpublisher": 6372,
      "oba": 6373,
      "ajev": 6374,
      "Ġ1948": 6375,
      "Ġdescribing": 6376,
      "Ġgeneration": 6377,
      "Ġmoder": 6378,
      "Ġ1917": 6379,
      "Ġappearing": 6380,
      "Ġmedieval": 6381,
      "Ġfields": 6382,
      "Ġstatement": 6383,
      "Ġhistoric": 6384,
      "Ġ1890": 6385,
      "Ġcoastal": 6386,
      "Ġpredecess": 6387,
      "Ġelectric": 6388,
      "Ġruled": 6389,
      "Ġrules": 6390,
      "Ġaccounts": 6391,
      "Ġyounger": 6392,
      "ĠWeekly": 6393,
      "ĠSarajev": 6394,
      "ĠLisa": 6395,
      "ĠIndustry": 6396,
      "ĠSarajevo": 6397,
      "can": 6398,
      "mans": 6399,
      "Ã¨": 6400,
      "intend": 6401,
      "erted": 6402,
      "orough": 6403,
      "Ġcaught": 6404,
      "Ġcinem": 6405,
      "itors": 6406,
      "ena": 6407,
      "Ġtomb": 6408,
      "ĠHo": 6409,
      "ĠHard": 6410,
      "ĠRay": 6411,
      "ĠDaily": 6412,
      "ĠLess": 6413,
      "iful": 6414,
      "Ġexpect": 6415,
      "Ġexception": 6416,
      "Ġplants": 6417,
      "Ġarts": 6418,
      "ube": 6419,
      "ĠVol": 6420,
      "Ġdesire": 6421,
      "ĠYe": 6422,
      "ĠYank": 6423,
      "formation": 6424,
      "attle": 6425,
      "Ġsomeone": 6426,
      "Ġapart": 6427,
      "Ġsoil": 6428,
      "Ġretire": 6429,
      "Ġ1979": 6430,
      "Ġ1951": 6431,
      "Ġbasic": 6432,
      "Ġeverything": 6433,
      "Ġdiscovery": 6434,
      "Ġdifficulty": 6435,
      "Ġrecognition": 6436,
      "Ġtribes": 6437,
      "Ġzone": 6438,
      "Ġforests": 6439,
      "Ġrarely": 6440,
      "Ġconsiderable": 6441,
      "ĠStrand": 6442,
      "ĠVictoria": 6443,
      "Ġemotional": 6444,
      "Ġninth": 6445,
      "ĠDestiny": 6446,
      "Ġarticle": 6447,
      "Ġrestaurant": 6448,
      "cribed": 6449,
      "ĠStephen": 6450,
      "ĠFrederick": 6451,
      "ĠYankovic": 6452,
      "OC": 6453,
      "cop": 6454,
      "ients": 6455,
      "vis": 6456,
      "Ġtaught": 6457,
      "orer": 6458,
      "itage": 6459,
      "Ġbond": 6460,
      "ĠTop": 6461,
      "ĠAround": 6462,
      "igades": 6463,
      "Ġstore": 6464,
      "ĠHell": 6465,
      "othes": 6466,
      "ĠPress": 6467,
      "Ġconve": 6468,
      "ĠGil": 6469,
      "ĠEarl": 6470,
      "ĠInit": 6471,
      "Ġshore": 6472,
      "Ġkings": 6473,
      "Ġcontest": 6474,
      "Ġmanner": 6475,
      "Ġdisappe": 6476,
      "Ġenl": 6477,
      "Ġshel": 6478,
      "Ġdoct": 6479,
      "Ġ1961": 6480,
      "Ġlanded": 6481,
      "Ġ1954": 6482,
      "ĠTelevision": 6483,
      "Ġevening": 6484,
      "Ġopponents": 6485,
      "Ġreplacement": 6486,
      "ĠAbb": 6487,
      "Ġinvolvement": 6488,
      "Ġpitch": 6489,
      "graded": 6490,
      "coming": 6491,
      "Ġnomination": 6492,
      "Ġspecifically": 6493,
      "Ġchapel": 6494,
      "Ġwooden": 6495,
      "ĠResear": 6496,
      "Ġcolonial": 6497,
      "ĠJoe": 6498,
      "Ġhotel": 6499,
      "ĠSomali": 6500,
      "Ġrhyth": 6501,
      "ĠClarkson": 6502,
      "Ġthirty": 6503,
      "ĠRolling": 6504,
      "ĠMozamb": 6505,
      "Ġsudden": 6506,
      "Brien": 6507,
      "aire": 6508,
      "cation": 6509,
      "nest": 6510,
      "rin": 6511,
      "ym": 6512,
      "ys": 6513,
      "Ã¶": 6514,
      "Ġfan": 6515,
      "Ġfair": 6516,
      "ingale": 6517,
      "Ġmine": 6518,
      "Ġhope": 6519,
      "ĠSanta": 6520,
      "ĠFame": 6521,
      "ĠFlow": 6522,
      "ĠDom": 6523,
      "ĠDet": 6524,
      "Ġconsequ": 6525,
      "ĠNether": 6526,
      "ĠLords": 6527,
      "ĠJif": 6528,
      "ateur": 6529,
      "Ġimpr": 6530,
      "Ġwealth": 6531,
      "Ġ69": 6532,
      "Ġsecured": 6533,
      "ĠAnton": 6534,
      "Ġ87": 6535,
      "Ġsoft": 6536,
      "Ġaccur": 6537,
      "ĠLee": 6538,
      "Ġ1937": 6539,
      "Ġbelieves": 6540,
      "ĠOrder": 6541,
      "psons": 6542,
      "Ġcommunities": 6543,
      "ĠSimpsons": 6544,
      "Ġdivine": 6545,
      "ĠRoberts": 6546,
      "aska": 6547,
      "Ġpoems": 6548,
      "ĠDuke": 6549,
      "ĠSingles": 6550,
      "ĠJerusal": 6551,
      "ĠCampb": 6552,
      "ĠSkye": 6553,
      "Ġintersection": 6554,
      "Ġcontroversy": 6555,
      "Ġpicked": 6556,
      "ĠColonel": 6557,
      "ĠCastle": 6558,
      "ĠWilde": 6559,
      "Ġrecommended": 6560,
      "Ġfungus": 6561,
      "ĠBono": 6562,
      "ĠFrancisco": 6563,
      "ĠJifna": 6564,
      "ĠJerusalem": 6565,
      "LI": 6566,
      "ao": 6567,
      "eenth": 6568,
      "nell": 6569,
      "named": 6570,
      "rations": 6571,
      "theless": 6572,
      "rets": 6573,
      "reets": 6574,
      "itled": 6575,
      "Ġfaces": 6576,
      "Ġmunicip": 6577,
      "ĠTel": 6578,
      "Ġlov": 6579,
      "ĠMaster": 6580,
      "ĠRÃ©": 6581,
      "ĠFish": 6582,
      "ĠDis": 6583,
      "Ġconte": 6584,
      "ĠWars": 6585,
      "ava": 6586,
      "Ġpros": 6587,
      "Ġvan": 6588,
      "ultane": 6589,
      "Ġreleg": 6590,
      "Ġwhereas": 6591,
      "Ġsigning": 6592,
      "Ġ1955": 6593,
      "Ġextrem": 6594,
      "ĠTrack": 6595,
      "Ġstandards": 6596,
      "Ġlegs": 6597,
      "Ġjoint": 6598,
      "ĠEliz": 6599,
      "ĠHamilton": 6600,
      "Ġappoint": 6601,
      "Ġmissed": 6602,
      "Ġlaunch": 6603,
      "Ġdrawing": 6604,
      "Ġvolunte": 6605,
      "ĠÃĹ": 6606,
      "ĠOlympics": 6607,
      "Ġscholar": 6608,
      "Ġconcerns": 6609,
      "ĠMilitary": 6610,
      "Ġleadership": 6611,
      "Ġprincipal": 6612,
      "Ġspecimens": 6613,
      "ĠAdams": 6614,
      "ĠTransport": 6615,
      "ĠIndependent": 6616,
      "ĠArgentina": 6617,
      "Ġorganizations": 6618,
      "Ġextremely": 6619,
      "30": 6620,
      "Ġsession": 6621,
      "atures": 6622,
      "Ġcard": 6623,
      "amber": 6624,
      "ĠCat": 6625,
      "ĠCop": 6626,
      "ĠCory": 6627,
      "Ġgal": 6628,
      "ĠBi": 6629,
      "Ġstream": 6630,
      "ĠHere": 6631,
      "ceived": 6632,
      "ĠRif": 6633,
      "ĠFire": 6634,
      "Ġconference": 6635,
      "ĠWi": 6636,
      "ĠWalk": 6637,
      "Ġ1900": 6638,
      "osure": 6639,
      "avia": 6640,
      "uma": 6641,
      "istol": 6642,
      "Ġexisted": 6643,
      "Ġyouth": 6644,
      "pton": 6645,
      "Ġparties": 6646,
      "Ġpartners": 6647,
      "Ġteeth": 6648,
      "Ġjazz": 6649,
      "wealth": 6650,
      "Ġspeech": 6651,
      "Ġcommit": 6652,
      "ĠMarc": 6653,
      "Ġshowing": 6654,
      "Ġdistributed": 6655,
      "Ġ1958": 6656,
      "ĠBeach": 6657,
      "ĠForces": 6658,
      "Ġapproached": 6659,
      "Ġtries": 6660,
      "ĠPrime": 6661,
      "engers": 6662,
      "Ġrelationships": 6663,
      "Äģn": 6664,
      "Ġtreaty": 6665,
      "Ġdiameter": 6666,
      "Ġthreatened": 6667,
      "Ġsurrounded": 6668,
      "Ġemerged": 6669,
      "Ġchemical": 6670,
      "ranean": 6671,
      "ĠWriting": 6672,
      "ĠBanai": 6673,
      "Ġconnection": 6674,
      "Ġeuropium": 6675,
      "ez": 6676,
      "gie": 6677,
      "ipe": 6678,
      "wise": 6679,
      "Ġwants": 6680,
      "Ġwrong": 6681,
      "edom": 6682,
      "alent": 6683,
      "Ġpack": 6684,
      "Ġpage": 6685,
      "Ġhill": 6686,
      "ĠSpring": 6687,
      "add": 6688,
      "acent": 6689,
      "ĠMot": 6690,
      "Ġstem": 6691,
      "ĠHu": 6692,
      "Ġalien": 6693,
      "ĠFel": 6694,
      "ĠWy": 6695,
      "Ġshark": 6696,
      "Ġleuk": 6697,
      "ideos": 6698,
      "Ġdisapp": 6699,
      "ĠYan": 6700,
      "Ġ79": 6701,
      "Ġproduct": 6702,
      "Ġ1949": 6703,
      "Ġ1977": 6704,
      "Ġdiscip": 6705,
      "Ġstrateg": 6706,
      "ĠCarter": 6707,
      "ĠPlot": 6708,
      "Ã©t": 6709,
      "Ġsolid": 6710,
      "Ġhistorians": 6711,
      "Ġseeing": 6712,
      "Ġcrossed": 6713,
      "Ġfacing": 6714,
      "Ġregularly": 6715,
      "Ġconduct": 6716,
      "ĠDepression": 6717,
      "Ġrailway": 6718,
      "Ġimmediate": 6719,
      "Ġfiring": 6720,
      "Ġfavorite": 6721,
      "Ġhoped": 6722,
      "Ġdocumentary": 6723,
      "Ġinstitutions": 6724,
      "Ġlbw": 6725,
      "Ġalternative": 6726,
      "Ġratings": 6727,
      "ĠNorman": 6728,
      "Ġexpedition": 6729,
      "ĠRoger": 6730,
      "Ġunusual": 6731,
      "ĠModern": 6732,
      "Ġisolated": 6733,
      "Ġsynthes": 6734,
      "ĠLennon": 6735,
      "dal": 6736,
      "inals": 6737,
      "Ġsoul": 6738,
      "union": 6739,
      "atus": 6740,
      "Ġcold": 6741,
      "Ġbes": 6742,
      "Ġinland": 6743,
      "entions": 6744,
      "owie": 6745,
      "usad": 6746,
      "ĠDA": 6747,
      "ĠWW": 6748,
      "ĠWat": 6749,
      "ĠGoffman": 6750,
      "abeth": 6751,
      "Ġadmitted": 6752,
      "oked": 6753,
      "Ġscrap": 6754,
      "Ġpartial": 6755,
      "ĠUnlike": 6756,
      "Ġregional": 6757,
      "Ġassumed": 6758,
      "Ġindig": 6759,
      "Ġsym": 6760,
      "Ġ121": 6761,
      "iversary": 6762,
      "Ġbright": 6763,
      "Ġexpansion": 6764,
      "Ġowner": 6765,
      "Ġdesignation": 6766,
      "Ġwarm": 6767,
      "Ġpointed": 6768,
      "ossible": 6769,
      "ĠHergÃ©": 6770,
      "Ġanniversary": 6771,
      "Ġreviewer": 6772,
      "Ġbreaking": 6773,
      "Ġdemol": 6774,
      "Ġstrongly": 6775,
      "Ġchanging": 6776,
      "Ġdetail": 6777,
      "Ġdestroyers": 6778,
      "Ġprotests": 6779,
      "ombat": 6780,
      "Ġtreated": 6781,
      "ÃŃvar": 6782,
      "Ġveget": 6783,
      "Ġlanguages": 6784,
      "Ġsequel": 6785,
      "ooth": 6786,
      "Ġmotor": 6787,
      "Ġliterary": 6788,
      "Ġexamples": 6789,
      "Ġbringing": 6790,
      "ĠJaneiro": 6791,
      "Ġwatershed": 6792,
      "ĠHuman": 6793,
      "ĠBolÃŃvar": 6794,
      "Ġmessage": 6795,
      "Ġduties": 6796,
      "ĠRyan": 6797,
      "Ġprotagonist": 6798,
      "ĠSaprang": 6799,
      "ĠKilmer": 6800,
      "Ġfranchise": 6801,
      "friend": 6802,
      "gas": 6803,
      "rab": 6804,
      "war": 6805,
      "Ã¼": 6806,
      "Ġtie": 6807,
      "onica": 6808,
      "Ġske": 6809,
      "orters": 6810,
      "Ġfish": 6811,
      "ingly": 6812,
      "Ġharm": 6813,
      "ĠTrib": 6814,
      "ĠTower": 6815,
      "ĠAR": 6816,
      "Ġeighth": 6817,
      "ĠIron": 6818,
      "imet": 6819,
      "Ġstadium": 6820,
      "ĠFern": 6821,
      "ĠWimb": 6822,
      "osite": 6823,
      "ĠNap": 6824,
      "Ġsections": 6825,
      "Ġorchest": 6826,
      "Ġchampion": 6827,
      "ĠKat": 6828,
      "ĠKel": 6829,
      "Ġtra": 6830,
      "ĠChief": 6831,
      "Ġintention": 6832,
      "ĠHearts": 6833,
      "Ġaged": 6834,
      "Ġoverw": 6835,
      "ibl": 6836,
      "Ġoutf": 6837,
      "Ġmeets": 6838,
      "aws": 6839,
      "Ġretreat": 6840,
      "Ġindicated": 6841,
      "Ġ1983": 6842,
      "Ġminister": 6843,
      "ledon": 6844,
      "Ġdepartment": 6845,
      "Ġairline": 6846,
      "Ġwinner": 6847,
      "Ġapproved": 6848,
      "Ġmarks": 6849,
      "Ġdetailed": 6850,
      "Ġgenre": 6851,
      "Ġcoup": 6852,
      "Ġimprove": 6853,
      "Ġcircum": 6854,
      "Ġengineering": 6855,
      "Ġcompletion": 6856,
      "Ġabsor": 6857,
      "ĠLawton": 6858,
      "Ġancest": 6859,
      "Ġattracted": 6860,
      "ĠBCE": 6861,
      "Ġspecimen": 6862,
      "Ġwearing": 6863,
      "Ġrescue": 6864,
      "ĠBurns": 6865,
      "Ġeggs": 6866,
      "Ġeasily": 6867,
      "Ġacademic": 6868,
      "ĠGeorgia": 6869,
      "ĠResearch": 6870,
      "ĠWimbledon": 6871,
      "aug": 6872,
      "eor": 6873,
      "iour": 6874,
      "know": 6875,
      "nie": 6876,
      "och": 6877,
      "Ġur": 6878,
      "Ġib": 6879,
      "ona": 6880,
      "Ġsun": 6881,
      "orous": 6882,
      "arp": 6883,
      "ician": 6884,
      "Ġhappy": 6885,
      "ĠAD": 6886,
      "ĠSquare": 6887,
      "Ġlap": 6888,
      "aments": 6889,
      "ĠMid": 6890,
      "ĠIV": 6891,
      "Ġgather": 6892,
      "ĠBul": 6893,
      "ĠBase": 6894,
      "ĠBank": 6895,
      "ĠHung": 6896,
      "ĠPerson": 6897,
      "ĠWin": 6898,
      "Ġru": 6899,
      "allow": 6900,
      "ockey": 6901,
      "ĠStation": 6902,
      "Ġtrail": 6903,
      "pping": 6904,
      "ogether": 6905,
      "oking": 6906,
      "ĠThird": 6907,
      "ensus": 6908,
      "ĠDev": 6909,
      "Ġacknow": 6910,
      "Ġmuscar": 6911,
      "Ġaccused": 6912,
      "Ġcoord": 6913,
      "Ġemp": 6914,
      "ĠGerard": 6915,
      "Ġcarbon": 6916,
      "ĠColor": 6917,
      "Ġattempting": 6918,
      "Ġeffectively": 6919,
      "istered": 6920,
      "Ġlooked": 6921,
      "Ġreading": 6922,
      "Ġsurviving": 6923,
      "Ġpractices": 6924,
      "Ġterritories": 6925,
      "ĠRichardson": 6926,
      "Ġcivilian": 6927,
      "Ġtraveled": 6928,
      "Ġfeeling": 6929,
      "Ġassistant": 6930,
      "ĠTerrit": 6931,
      "ĠJean": 6932,
      "Ġsettled": 6933,
      "Ġchallenge": 6934,
      "ĠSomalia": 6935,
      "Ġconstitution": 6936,
      "Ġencouraged": 6937,
      "Ġterminus": 6938,
      "Ġstarling": 6939,
      "ĠRhodes": 6940,
      "ĠCambridge": 6941,
      "Ġadjacent": 6942,
      "Ġcitiz": 6943,
      "ban": 6944,
      "bur": 6945,
      "body": 6946,
      "break": 6947,
      "cape": 6948,
      "mod": 6949,
      "Ġsell": 6950,
      "Ġfer": 6951,
      "Ġbal": 6952,
      "Ġmut": 6953,
      "Ġdock": 6954,
      "Ġthin": 6955,
      "ĠSa": 6956,
      "ĠSi": 6957,
      "ĠSav": 6958,
      "Ġnick": 6959,
      "amm": 6960,
      "ĠMortal": 6961,
      "thy": 6962,
      "Ġstreak": 6963,
      "ĠRos": 6964,
      "Ġraces": 6965,
      "Ġvideos": 6966,
      "illing": 6967,
      "ewhat": 6968,
      "Ġshots": 6969,
      "ĠKombat": 6970,
      "Ġcompounds": 6971,
      "Ġrecre": 6972,
      "Ġrecalled": 6973,
      "Ġpartly": 6974,
      "Ġpreced": 6975,
      "Ġevil": 6976,
      "ĠAniston": 6977,
      "Ġ91": 6978,
      "Ġ99": 6979,
      "Ġ88": 6980,
      "Ġunderw": 6981,
      "Ġinterchange": 6982,
      "Ġdecor": 6983,
      "Ġcrest": 6984,
      "Ġobtained": 6985,
      "Ġ1910": 6986,
      "Ġextreme": 6987,
      "Ġpossession": 6988,
      "Ġvisible": 6989,
      "Ġstands": 6990,
      "Ġ1909": 6991,
      "Ġconvoy": 6992,
      "ĠKeamy": 6993,
      "Ġidentity": 6994,
      "Ġ1880": 6995,
      "Ġarmor": 6996,
      "Ġseemed": 6997,
      "Ġgrey": 6998,
      "Ġpainted": 6999,
      "Ġbrothers": 7000,
      "Ġmulti": 7001,
      "Ġtowers": 7002,
      "Ġarrangement": 7003,
      "ĠFormula": 7004,
      "Ġrecovered": 7005,
      "Ġscientific": 7006,
      "ĠGarc": 7007,
      "Ġinhabit": 7008,
      "Ġcandidate": 7009,
      "ĠJournal": 7010,
      "ĠCommonwealth": 7011,
      "Ġromantic": 7012,
      "ĠAttorney": 7013,
      "Ġagricultural": 7014,
      "ĠJesus": 7015,
      "ĠAdmiral": 7016,
      "Ġsomewhat": 7017,
      "Ġinspiration": 7018,
      "bie": 7019,
      "dess": 7020,
      "Ġtone": 7021,
      "Ġtheatre": 7022,
      "Ġsan": 7023,
      "Ġocean": 7024,
      "isis": 7025,
      "Ġhits": 7026,
      "ĠTest": 7027,
      "amin": 7028,
      "Ġgall": 7029,
      "ivals": 7030,
      "thosaurus": 7031,
      "ĠPine": 7032,
      "ĠPower": 7033,
      "emia": 7034,
      "ĠWolf": 7035,
      "ĠLanc": 7036,
      "Ġhear": 7037,
      "Ġselect": 7038,
      "umps": 7039,
      "Ġproceed": 7040,
      "Ġshif": 7041,
      "Ġcloud": 7042,
      "Ġteach": 7043,
      "achus": 7044,
      "Ġspaces": 7045,
      "ĠAnc": 7046,
      "Ġrelative": 7047,
      "ĠMarines": 7048,
      "Ġverse": 7049,
      "Ġfled": 7050,
      "Ġacts": 7051,
      "ropol": 7052,
      "Ġpreserved": 7053,
      "Ġ122": 7054,
      "Ġmaint": 7055,
      "ĠJohnston": 7056,
      "Ġestate": 7057,
      "ekÄģn": 7058,
      "ĠGermans": 7059,
      "Ġimplement": 7060,
      "ĠFraser": 7061,
      "ennis": 7062,
      "Ġpassage": 7063,
      "Ġ1931": 7064,
      "Ġ1935": 7065,
      "Ġ1912": 7066,
      "ĠGuy": 7067,
      "Ġfootage": 7068,
      "ĠPoland": 7069,
      "Ġequal": 7070,
      "Ġconvin": 7071,
      "Ġcatch": 7072,
      "Ġcycle": 7073,
      "Ġsuffering": 7074,
      "ĠIslands": 7075,
      "Ġreduce": 7076,
      "Ġhosted": 7077,
      "Ġfunds": 7078,
      "Ġindustrial": 7079,
      "ĠArabic": 7080,
      "ĠEvery": 7081,
      "Ġlinked": 7082,
      "Ġspirit": 7083,
      "ĠType": 7084,
      "Ġsculpture": 7085,
      "Ġbasketball": 7086,
      "ĠPlunketts": 7087,
      "ĠCorythosaurus": 7088,
      "bishop": 7089,
      "how": 7090,
      "iary": 7091,
      "rast": 7092,
      "sewhere": 7093,
      "vious": 7094,
      "Ã¤": 7095,
      "Ġere": 7096,
      "Ġtailed": 7097,
      "Ġau": 7098,
      "Ġsessions": 7099,
      "Ġsiege": 7100,
      "Ġwars": 7101,
      "unior": 7102,
      "itals": 7103,
      "arning": 7104,
      "Ġps": 7105,
      "Ġmis": 7106,
      "Ġmap": 7107,
      "Ġhip": 7108,
      "illy": 7109,
      "sta": 7110,
      "Ġlob": 7111,
      "ĠCE": 7112,
      "ĠBos": 7113,
      "using": 7114,
      "ĠProte": 7115,
      "Ġconqu": 7116,
      "ĠNick": 7117,
      "ĠNintend": 7118,
      "ĠLoc": 7119,
      "Ġdeck": 7120,
      "ĠEc": 7121,
      "peare": 7122,
      "ĠInc": 7123,
      "Ġchronic": 7124,
      "abled": 7125,
      "Ġlegend": 7126,
      "Ġlearning": 7127,
      "Ġunf": 7128,
      "Ġdispl": 7129,
      "Ġserial": 7130,
      "ĠYour": 7131,
      "ĠRele": 7132,
      "aware": 7133,
      "Ġflo": 7134,
      "Ġincome": 7135,
      "ĠLev": 7136,
      "ificial": 7137,
      "ĠShakes": 7138,
      "Ġcontinuing": 7139,
      "Ġexpensive": 7140,
      "Ġprovince": 7141,
      "Ġattacking": 7142,
      "Ġ1932": 7143,
      "ĠAllah": 7144,
      "Ġreviewers": 7145,
      "Ġopposite": 7146,
      "Ġmedium": 7147,
      "Ġdestruction": 7148,
      "Ġdebate": 7149,
      "attered": 7150,
      "Ġtwelve": 7151,
      "ĠExp": 7152,
      "Ġcirculation": 7153,
      "Ġresponsibility": 7154,
      "Ġdefended": 7155,
      "Ġstayed": 7156,
      "Ġblocks": 7157,
      "going": 7158,
      "ĠHotel": 7159,
      "ĠFIA": 7160,
      "Ġequipped": 7161,
      "Ġconcerned": 7162,
      "Ġcontroversial": 7163,
      "Ġadults": 7164,
      "Ġcomposer": 7165,
      "Ġincorporated": 7166,
      "ĠPeninsula": 7167,
      "Ġcorrect": 7168,
      "ĠMarlborough": 7169,
      "Ġdownload": 7170,
      "erogative": 7171,
      "ĠNintendo": 7172,
      "ĠShakespeare": 7173,
      "hm": 7174,
      "ka": 7175,
      "xts": 7176,
      "ycl": 7177,
      "yles": 7178,
      "Ġic": 7179,
      "onic": 7180,
      "orious": 7181,
      "Ġble": 7182,
      "Ġbay": 7183,
      "Ġinaug": 7184,
      "Ġpric": 7185,
      "Ġpushed": 7186,
      "icts": 7187,
      "Ġnone": 7188,
      "uri": 7189,
      "Ġgone": 7190,
      "ĠPul": 7191,
      "ĠFair": 7192,
      "agas": 7193,
      "Ġritual": 7194,
      "ĠOwen": 7195,
      "Ġproport": 7196,
      "ĠKar": 7197,
      "Ġreserve": 7198,
      "Ġspin": 7199,
      "Ġsongwrit": 7200,
      "Ġpool": 7201,
      "iamond": 7202,
      "Ġdepos": 7203,
      "inking": 7204,
      "Ġpassengers": 7205,
      "Ġwilling": 7206,
      "Ġ1911": 7207,
      "Ġdriving": 7208,
      "ĠFei": 7209,
      "Ġ1921": 7210,
      "Ġ1929": 7211,
      "ĠFlight": 7212,
      "Ġlowest": 7213,
      "Ġvictims": 7214,
      "Ġpatrol": 7215,
      "ĠPalace": 7216,
      "ĠPalmy": 7217,
      "Ġpromote": 7218,
      "Ġmeetings": 7219,
      "Ġcrossing": 7220,
      "Ġaccommod": 7221,
      "Ġfalling": 7222,
      "Ġmeasures": 7223,
      "stitution": 7224,
      "Ġrebels": 7225,
      "ĠLawrence": 7226,
      "Ġobservations": 7227,
      "Ġvoted": 7228,
      "ĠPatrick": 7229,
      "Ġthrowing": 7230,
      "hews": 7231,
      "ĠStanley": 7232,
      "Ġremnants": 7233,
      "Ġparallel": 7234,
      "ĠConstruction": 7235,
      "Ġinitiative": 7236,
      "Ġkitsune": 7237,
      "ĠNetherlands": 7238,
      "burg": 7239,
      "rant": 7240,
      "ses": 7241,
      "yard": 7242,
      "zi": 7243,
      "zen": 7244,
      "inje": 7245,
      "Ġsight": 7246,
      "Ġcraft": 7247,
      "itated": 7248,
      "Ġinte": 7249,
      "anning": 7250,
      "Ġhat": 7251,
      "ĠSweet": 7252,
      "ĠChen": 7253,
      "ĠCook": 7254,
      "olay": 7255,
      "ĠBert": 7256,
      "iminal": 7257,
      "ĠHospital": 7258,
      "uscript": 7259,
      "emeter": 7260,
      "agn": 7261,
      "Ġcomments": 7262,
      "Ġexha": 7263,
      "Ġplain": 7264,
      "oca": 7265,
      "ĠStory": 7266,
      "ĠStock": 7267,
      "ogen": 7268,
      "onder": 7269,
      "arked": 7270,
      "formed": 7271,
      "Ġ82": 7272,
      "Ġflat": 7273,
      "Ġacclaim": 7274,
      "Ġretained": 7275,
      "Ġdefences": 7276,
      "Ġgross": 7277,
      "Ġ162": 7278,
      "Ġ1962": 7279,
      "Ġreturns": 7280,
      "Ġmusicians": 7281,
      "Ġ1959": 7282,
      "Ġgovernor": 7283,
      "Ġ1938": 7284,
      "Ġclassical": 7285,
      "ĠGeoff": 7286,
      "ĠOrgan": 7287,
      "Ġinvolving": 7288,
      "Ġrepresenting": 7289,
      "Ġpatron": 7290,
      "Ġequivalent": 7291,
      "Ġgoddess": 7292,
      "Ġpraise": 7293,
      "ĠAtlanta": 7294,
      "Ġwatch": 7295,
      "Ġvillages": 7296,
      "Ġpitcher": 7297,
      "Ġdifficulties": 7298,
      "Ġsuperior": 7299,
      "Ġraise": 7300,
      "ĠPlayer": 7301,
      "Ġbiography": 7302,
      "ĠQueens": 7303,
      "Ġintensified": 7304,
      "Ġobjects": 7305,
      "ĠEmperor": 7306,
      "Ġabsol": 7307,
      "Ġunderstand": 7308,
      "ĠPitman": 7309,
      "Ġcarrying": 7310,
      "Ġvessels": 7311,
      "ĠKorean": 7312,
      "Ġfixed": 7313,
      "Ġbatsman": 7314,
      "ĠGuardian": 7315,
      "ĠCambodia": 7316,
      "Ġoccasions": 7317,
      "Ġhydro": 7318,
      "Ġglobal": 7319,
      "Ġethn": 7320,
      "ĠStefani": 7321,
      "ĠElizabeth": 7322,
      "ĠGarcÃŃa": 7323,
      "emetery": 7324,
      "de": 7325,
      "uct": 7326,
      "wich": 7327,
      "err": 7328,
      "Ġsam": 7329,
      "Ġsulf": 7330,
      "Ġow": 7331,
      "Ġcry": 7332,
      "Ġfal": 7333,
      "Ġfine": 7334,
      "Ġmart": 7335,
      "Ġdivers": 7336,
      "entures": 7337,
      "ĠCru": 7338,
      "Ġonline": 7339,
      "Ġgend": 7340,
      "terbury": 7341,
      "ĠBass": 7342,
      "ĠHun": 7343,
      "Ġalleg": 7344,
      "Ġansw": 7345,
      "ĠLab": 7346,
      "ĠJoy": 7347,
      "Ġsees": 7348,
      "Ġray": 7349,
      "ĠOur": 7350,
      "Ġprohib": 7351,
      "Ġorn": 7352,
      "Ġexchange": 7353,
      "ĠChannel": 7354,
      "Ġresources": 7355,
      "Ġju": 7356,
      "Ġcommitted": 7357,
      "Ġ74": 7358,
      "Ġsimultane": 7359,
      "ĠMega": 7360,
      "ĠCanterbury": 7361,
      "Ġperiods": 7362,
      "ĠSpace": 7363,
      "Ġcovers": 7364,
      "Ġdefeating": 7365,
      "pecies": 7366,
      "Ġinfluences": 7367,
      "ĠDesign": 7368,
      "Ġdivisions": 7369,
      "Ġlimit": 7370,
      "Ġneeds": 7371,
      "Ġaccompany": 7372,
      "Ġmoral": 7373,
      "Ġcollaps": 7374,
      "Ġrenew": 7375,
      "Ġreveals": 7376,
      "ĠMediter": 7377,
      "Ġescort": 7378,
      "ĠEnterprise": 7379,
      "Ġpurchase": 7380,
      "Ġnarrative": 7381,
      "Ġvoiced": 7382,
      "Ġbehaviour": 7383,
      "ĠPalestine": 7384,
      "ĠAthletic": 7385,
      "Ġcamera": 7386,
      "Ġpreferred": 7387,
      "Ġconcerts": 7388,
      "ĠProtest": 7389,
      "ĠAerith": 7390,
      "ĠPhillies": 7391,
      "Ġsurvivors": 7392,
      "Ġcontext": 7393,
      "ĠMediterranean": 7394,
      "fare": 7395,
      "graf": 7396,
      "mine": 7397,
      "rig": 7398,
      "uilt": 7399,
      "Ġtick": 7400,
      "rel": 7401,
      "Ġcul": 7402,
      "Ġfold": 7403,
      "esc": 7404,
      "esi": 7405,
      "ĠCorn": 7406,
      "ĠMu": 7407,
      "ĠMother": 7408,
      "ĠBark": 7409,
      "Ġash": 7410,
      "ĠRaff": 7411,
      "ĠRugby": 7412,
      "ĠFurt": 7413,
      "ĠDC": 7414,
      "ĠDi": 7415,
      "ĠWicc": 7416,
      "ĠNow": 7417,
      "ĠLate": 7418,
      "ĠLink": 7419,
      "ĠLabor": 7420,
      "Ġrugby": 7421,
      "resents": 7422,
      "apped": 7423,
      "ophy": 7424,
      "atech": 7425,
      "Ġexit": 7426,
      "uda": 7427,
      "ĠStop": 7428,
      "elli": 7429,
      "ureau": 7430,
      "Ġclo": 7431,
      "Ġagree": 7432,
      "Ġfeather": 7433,
      "Ġproducts": 7434,
      "Ġformally": 7435,
      "Ġfollowers": 7436,
      "Ġincom": 7437,
      "Ġ06": 7438,
      "Ġ07": 7439,
      "Ġ161": 7440,
      "annah": 7441,
      "Ġoperating": 7442,
      "raph": 7443,
      "Ġrepresents": 7444,
      "ooking": 7445,
      "ahl": 7446,
      "Ġconsiders": 7447,
      "ĠUSD": 7448,
      "Ġrefers": 7449,
      "Ġcovering": 7450,
      "Ġelse": 7451,
      "Ġelabor": 7452,
      "Ġcriticised": 7453,
      "Ġdetect": 7454,
      "Ġdoesn": 7455,
      "Ġsteel": 7456,
      "Ġcloser": 7457,
      "ĠChampionships": 7458,
      "ĠMarkgraf": 7459,
      "Ġtribut": 7460,
      "Ġfeelings": 7461,
      "Ġvisitors": 7462,
      "Ġabsence": 7463,
      "Ġnormally": 7464,
      "Ġhundreds": 7465,
      "Ġpupils": 7466,
      "ĠSpecial": 7467,
      "Ġlegislation": 7468,
      "Ġdeployed": 7469,
      "Ġarrested": 7470,
      "Ġdialogue": 7471,
      "Ġproposal": 7472,
      "ĠGrammy": 7473,
      "Ġrhythm": 7474,
      "Ġmunicipal": 7475,
      "ĠCathedral": 7476,
      "ĠColorado": 7477,
      "ĠRaffles": 7478,
      "ĠFurtado": 7479,
      "after": 7480,
      "eke": 7481,
      "math": 7482,
      "organ": 7483,
      "isms": 7484,
      "esse": 7485,
      "Ġbone": 7486,
      "Ġbrick": 7487,
      "Ġpure": 7488,
      "Ġdim": 7489,
      "Ġdens": 7490,
      "Ġdiet": 7491,
      "Ġet": 7492,
      "ĠCab": 7493,
      "urday": 7494,
      "ĠMel": 7495,
      "iders": 7496,
      "Ġstable": 7497,
      "otic": 7498,
      "ĠPA": 7499,
      "ĠDark": 7500,
      "ĠGib": 7501,
      "agu": 7502,
      "Ġdeem": 7503,
      "ĠUsta": 7504,
      "Ġreconna": 7505,
      "ĠAlong": 7506,
      "Ġmanuscript": 7507,
      "ĠReal": 7508,
      "Ġfeed": 7509,
      "Ġ93": 7510,
      "Ġprerogative": 7511,
      "Ġforming": 7512,
      "Ġamino": 7513,
      "Ġsurpr": 7514,
      "Ġ166": 7515,
      "ĠSholay": 7516,
      "Ġinfrast": 7517,
      "ullen": 7518,
      "ĠTechn": 7519,
      "Ġextent": 7520,
      "Ġclassic": 7521,
      "Ġtrading": 7522,
      "Ġskull": 7523,
      "Ã¡r": 7524,
      "Ġhyp": 7525,
      "Ġbiographer": 7526,
      "Ġpoorly": 7527,
      "Ġstationed": 7528,
      "ĠImperial": 7529,
      "Ġdisplays": 7530,
      "ĠPrior": 7531,
      "Ġensure": 7532,
      "Ġmoments": 7533,
      "Ġoption": 7534,
      "Ġinternal": 7535,
      "Ġdrums": 7536,
      "ĠKrak": 7537,
      "Ġinterpret": 7538,
      "ĠSaturday": 7539,
      "ĠDominican": 7540,
      "ĠNHL": 7541,
      "Ġsubmarine": 7542,
      "Ġresearchers": 7543,
      "Ġreconstruction": 7544,
      "Ġconvection": 7545,
      "ĠFernand": 7546,
      "Ġmuscaria": 7547,
      "ĠUstaÅ¡": 7548,
      "Ġreconnaissance": 7549,
      "eper": 7550,
      "ias": 7551,
      "vention": 7552,
      "Ġsunk": 7553,
      "Ġswe": 7554,
      "Ġsaves": 7555,
      "Ġwings": 7556,
      "Ġcreek": 7557,
      "Ġbat": 7558,
      "Ġblow": 7559,
      "ĠTig": 7560,
      "ĠTreat": 7561,
      "ĠSher": 7562,
      "state": 7563,
      "Ġlose": 7564,
      "Ġlists": 7565,
      "ĠCape": 7566,
      "ĠBed": 7567,
      "Ġstreets": 7568,
      "ĠHou": 7569,
      "ĠHob": 7570,
      "ĠFree": 7571,
      "ĠDur": 7572,
      "eman": 7573,
      "Ġorbit": 7574,
      "ĠKit": 7575,
      "Ġintense": 7576,
      "Ġ89": 7577,
      "ĠMarg": 7578,
      "Ġverte": 7579,
      "Ġappropri": 7580,
      "Ġ05": 7581,
      "Ġentitled": 7582,
      "Ġtransition": 7583,
      "Ġuseful": 7584,
      "ĠBlood": 7585,
      "Ġmodified": 7586,
      "Ġannually": 7587,
      "Ġdriven": 7588,
      "Ġextension": 7589,
      "Ġconstruct": 7590,
      "Ġinfluential": 7591,
      "encies": 7592,
      "Ġposted": 7593,
      "ĠMaggie": 7594,
      "ĠRecord": 7595,
      "ĠMexican": 7596,
      "ĠMedia": 7597,
      "Ġinjuries": 7598,
      "Ġwithdrew": 7599,
      "Ġmemory": 7600,
      "Ġcruiser": 7601,
      "ĠFIFA": 7602,
      "Ġunderstanding": 7603,
      "Ġdramatic": 7604,
      "Ġpurposes": 7605,
      "iques": 7606,
      "Ġdynasty": 7607,
      "ĠDAG": 7608,
      "Ġoverwhel": 7609,
      "CA": 7610,
      "ds": 7611,
      "rine": 7612,
      "sch": 7613,
      "vements": 7614,
      "vati": 7615,
      "Åį": 7616,
      "Ġtight": 7617,
      "Ġtank": 7618,
      "Ġtests": 7619,
      "inet": 7620,
      "onomy": 7621,
      "real": 7622,
      "rell": 7623,
      "Ġsaved": 7624,
      "aten": 7625,
      "ora": 7626,
      "oral": 7627,
      "Ġchess": 7628,
      "icop": 7629,
      "Ġdinosaur": 7630,
      "Ġhang": 7631,
      "lete": 7632,
      "Ġrepr": 7633,
      "Ġloy": 7634,
      "ĠCult": 7635,
      "ĠMah": 7636,
      "ĠBron": 7637,
      "ĠHud": 7638,
      "ĠHok": 7639,
      "ĠHind": 7640,
      "ĠFront": 7641,
      "Ġcong": 7642,
      "uls": 7643,
      "ĠNichol": 7644,
      "ĠJenn": 7645,
      "Ġrated": 7646,
      "Ġrates": 7647,
      "Ġridge": 7648,
      "rif": 7649,
      "Ġvac": 7650,
      "Ġorb": 7651,
      "Ġchoir": 7652,
      "Ġexcess": 7653,
      "Ġplane": 7654,
      "pty": 7655,
      "ĠVII": 7656,
      "Ġclock": 7657,
      "Ġago": 7658,
      "Ġotherwise": 7659,
      "Ġspoke": 7660,
      "Ġ63": 7661,
      "mann": 7662,
      "Ġ900": 7663,
      "Ġwritings": 7664,
      "Ġactual": 7665,
      "Ġammun": 7666,
      "Ġseverely": 7667,
      "Ġoriginated": 7668,
      "Ġshipping": 7669,
      "Ġinstalled": 7670,
      "Ġgenerated": 7671,
      "Ġexposure": 7672,
      "Ġhelicop": 7673,
      "Ġrestrict": 7674,
      "Ġ1928": 7675,
      "Ġengines": 7676,
      "Ġdemand": 7677,
      "Ġsuggesting": 7678,
      "Ġframe": 7679,
      "ĠParvati": 7680,
      "Ġfactors": 7681,
      "Ġinterests": 7682,
      "Ġwatching": 7683,
      "Ġreaders": 7684,
      "ĠTownship": 7685,
      "restling": 7686,
      "Ġcrosses": 7687,
      "Ġburned": 7688,
      "Ġinformed": 7689,
      "Ġkingdom": 7690,
      "Ġmaterials": 7691,
      "ĠIsraeli": 7692,
      "Ġsatisf": 7693,
      "ĠNorway": 7694,
      "Ġessential": 7695,
      "Ġsubspecies": 7696,
      "Ġapparently": 7697,
      "Ġjournalist": 7698,
      "Ġdoubt": 7699,
      "ĠMassachus": 7700,
      "Ġhappened": 7701,
      "Ġpanel": 7702,
      "Ġpicture": 7703,
      "Ġcustom": 7704,
      "Ġchairman": 7705,
      "Ġjackrab": 7706,
      "ĠEducation": 7707,
      "ĠRÃ©union": 7708,
      "Ġcircumstances": 7709,
      "ĠBarker": 7710,
      "Ġammunition": 7711,
      "ĠMassachusetts": 7712,
      "gency": 7713,
      "mn": 7714,
      "ni": 7715,
      "rants": 7716,
      "á»": 7717,
      "Ġille": 7718,
      "heera": 7719,
      "Ġcart": 7720,
      "Ġciting": 7721,
      "Ġfestival": 7722,
      "ĠTon": 7723,
      "Ġready": 7724,
      "ĠAld": 7725,
      "ilst": 7726,
      "ĠSports": 7727,
      "ĠCec": 7728,
      "acle": 7729,
      "ĠHamp": 7730,
      "ĠHaving": 7731,
      "utz": 7732,
      "ĠFound": 7733,
      "ĠGary": 7734,
      "ĠGwen": 7735,
      "aga": 7736,
      "ĠEaton": 7737,
      "ĠInt": 7738,
      "ateau": 7739,
      "ables": 7740,
      "ĠKann": 7741,
      "oven": 7742,
      "raham": 7743,
      "Ġclimate": 7744,
      "Ġrecur": 7745,
      "Ġpartially": 7746,
      "Ġdisaster": 7747,
      "Ġearn": 7748,
      "Ġrelie": 7749,
      "Ġcancer": 7750,
      "Ġmovements": 7751,
      "Ġeleven": 7752,
      "ĠBranch": 7753,
      "Ġbelt": 7754,
      "Ġoperate": 7755,
      "Ġgenerals": 7756,
      "Ġimpossible": 7757,
      "Ġcarved": 7758,
      "Ġlatex": 7759,
      "ĠGuide": 7760,
      "Ġlisten": 7761,
      "urricanes": 7762,
      "Ġ1927": 7763,
      "Ġcauses": 7764,
      "ĠPeters": 7765,
      "Ġparish": 7766,
      "ĠMinistry": 7767,
      "Ġvictories": 7768,
      "ĠXe": 7769,
      "ĠFederal": 7770,
      "ĠRichmond": 7771,
      "Ġmixture": 7772,
      "Ġsurvive": 7773,
      "ĠCorpor": 7774,
      "Ġburning": 7775,
      "ĠWilson": 7776,
      "Ġtransportation": 7777,
      "ĠPortugal": 7778,
      "Ġlayer": 7779,
      "Ġbombard": 7780,
      "Ġadministr": 7781,
      "Ġshells": 7782,
      "Ġinstruments": 7783,
      "Ġstarlings": 7784,
      "Ġbehavior": 7785,
      "ĠHistoric": 7786,
      "Ġdeparture": 7787,
      "ĠRAAF": 7788,
      "ĠSwedish": 7789,
      "tavÄģda": 7790,
      "Ġsubstantial": 7791,
      "Ġoverseas": 7792,
      "ĠPatty": 7793,
      "Ġresistance": 7794,
      "ekÄģntavÄģda": 7795,
      "ĠUstaÅ¡e": 7796,
      "ĠKannada": 7797,
      "OK": 7798,
      "life": 7799,
      "pes": 7800,
      "pent": 7801,
      "yria": 7802,
      "zac": 7803,
      "Ê»": 7804,
      "Ġsquadron": 7805,
      "Ġwine": 7806,
      "Ġdangerous": 7807,
      "lets": 7808,
      "iling": 7809,
      "ĠSis": 7810,
      "Ġlover": 7811,
      "Ġliber": 7812,
      "ĠCBS": 7813,
      "Ġwasn": 7814,
      "Ġbearing": 7815,
      "urse": 7816,
      "ĠMand": 7817,
      "ĠMidge": 7818,
      "ĠMasters": 7819,
      "ĠMÃ¡r": 7820,
      "ĠBall": 7821,
      "ĠBaker": 7822,
      "ĠBureau": 7823,
      "ithic": 7824,
      "ĠPass": 7825,
      "ĠPict": 7826,
      "chang": 7827,
      "andoba": 7828,
      "osl": 7829,
      "osm": 7830,
      "ĠElect": 7831,
      "ĠEagle": 7832,
      "Ġshut": 7833,
      "aste": 7834,
      "teenth": 7835,
      "Ġunlike": 7836,
      "Ġrooms": 7837,
      "Ġabund": 7838,
      "Ġresigned": 7839,
      "ricted": 7840,
      "Ġafterwards": 7841,
      "Ġspores": 7842,
      "ĠYug": 7843,
      "Ġspend": 7844,
      "Ġcommem": 7845,
      "Ġconsc": 7846,
      "Ġamateur": 7847,
      "Ġsupporters": 7848,
      "Ġinstance": 7849,
      "Ġmusician": 7850,
      "Ġmodels": 7851,
      "Ġ1933": 7852,
      "Ġrestored": 7853,
      "Ġmarry": 7854,
      "Ġlisting": 7855,
      "Ġphr": 7856,
      "quez": 7857,
      "Ġtemples": 7858,
      "Ġcompete": 7859,
      "ĠSimpson": 7860,
      "ĠPolice": 7861,
      "Ġinteresting": 7862,
      "Ġlooks": 7863,
      "Ġtechniques": 7864,
      "Ġelectronic": 7865,
      "Ġ1860": 7866,
      "Ġsequences": 7867,
      "Ġengineers": 7868,
      "Ġthinking": 7869,
      "ĠKhandoba": 7870,
      "Ġtribute": 7871,
      "Ġloan": 7872,
      "Ġpersu": 7873,
      "Ġestablishing": 7874,
      "Ġdocuments": 7875,
      "forced": 7876,
      "itzer": 7877,
      "ĠVeronica": 7878,
      "ĠHowe": 7879,
      "rorist": 7880,
      "ASA": 7881,
      "Ġopportunities": 7882,
      "Ġstruggle": 7883,
      "Ġwindows": 7884,
      "Ġpremiered": 7885,
      "Ġbeautiful": 7886,
      "ĠStewart": 7887,
      "ĠYanke": 7888,
      "ĠMÃ¡rquez": 7889,
      "ĠYugosl": 7890,
      "DH": 7891,
      "Hg": 7892,
      "MO": 7893,
      "nal": 7894,
      "pus": 7895,
      "sp": 7896,
      "uv": 7897,
      "western": 7898,
      "Ġtip": 7899,
      "Ġsale": 7900,
      "Ġfram": 7901,
      "ĠinHg": 7902,
      "Ġpale": 7903,
      "Ġmode": 7904,
      "roit": 7905,
      "leph": 7906,
      "ĠTam": 7907,
      "entional": 7908,
      "ĠAP": 7909,
      "ĠSoon": 7910,
      "omura": 7911,
      "ĠThen": 7912,
      "Ġgard": 7913,
      "Ġforcing": 7914,
      "ĠBath": 7915,
      "otton": 7916,
      "ĠRoc": 7917,
      "ĠFRE": 7918,
      "ĠWright": 7919,
      "osis": 7920,
      "ĠNad": 7921,
      "ĠNiel": 7922,
      "ĠLith": 7923,
      "ĠLast": 7924,
      "Ġheat": 7925,
      "ĠJr": 7926,
      "Ġprove": 7927,
      "ĠâĤ": 7928,
      "Ġnotably": 7929,
      "iped": 7930,
      "ishment": 7931,
      "Ġunion": 7932,
      "Ġrecru": 7933,
      "ryce": 7934,
      "Ġoutl": 7935,
      "rene": 7936,
      "Ġ68": 7937,
      "Ġremember": 7938,
      "Ġinteraction": 7939,
      "Ġsubst": 7940,
      "roscop": 7941,
      "Ġminimum": 7942,
      "Ġartwork": 7943,
      "Ġartificial": 7944,
      "ĠWho": 7945,
      "Ġdesigns": 7946,
      "Ġoffices": 7947,
      "Ġ1957": 7948,
      "Ġadvis": 7949,
      "Ġadventure": 7950,
      "Ġstorms": 7951,
      "onto": 7952,
      "Ġcriminal": 7953,
      "Ġsituated": 7954,
      "Ġelsewhere": 7955,
      "Ġdivor": 7956,
      "Ġpredomin": 7957,
      "Ġrecognised": 7958,
      "Ġachieve": 7959,
      "ĠPhilip": 7960,
      "Ġmerch": 7961,
      "ĠToronto": 7962,
      "Ġproperties": 7963,
      "Ġmemorial": 7964,
      "Ġcoins": 7965,
      "Ġexperiences": 7966,
      "ĠJustice": 7967,
      "Ġweapon": 7968,
      "ĠRobin": 7969,
      "Ġspiritual": 7970,
      "ĠMiller": 7971,
      "Ġthousand": 7972,
      "Ġneighbor": 7973,
      "Ġvessel": 7974,
      "ĠGirls": 7975,
      "ĠJurchen": 7976,
      "ĠPhoenix": 7977,
      "ĠMulder": 7978,
      "Ġretirement": 7979,
      "ĠMozambique": 7980,
      "ĠDetroit": 7981,
      "LIMO": 7982,
      "Ġacknowled": 7983,
      "atechism": 7984,
      "ĠFRELIMO": 7985,
      "cru": 7986,
      "iar": 7987,
      "ÅĽ": 7988,
      "áĥ": 7989,
      "Ġáĥ": 7990,
      "Ġtiss": 7991,
      "Ġtanks": 7992,
      "heme": 7993,
      "Ġsons": 7994,
      "orrow": 7995,
      "Ġfountain": 7996,
      "Ġmask": 7997,
      "icide": 7998,
      "ĠTs": 7999,
      "Ġrect": 8000,
      "ĠSb": 8001,
      "ĠSans": 8002,
      "omatic": 8003,
      "ĠCob": 8004,
      "ĠCelt": 8005,
      "ĠIra": 8006,
      "Ġgiant": 8007,
      "ĠBell": 8008,
      "ĠBang": 8009,
      "ĠBenn": 8010,
      "ĠPoint": 8011,
      "ĠRest": 8012,
      "ĠRaj": 8013,
      "Ġconj": 8014,
      "ĠNetwork": 8015,
      "Ġselection": 8016,
      "Ġvast": 8017,
      "aka": 8018,
      "Ġshop": 8019,
      "ĠKim": 8020,
      "ĠKansas": 8021,
      "order": 8022,
      "ears": 8023,
      "Ġtrained": 8024,
      "ĠVice": 8025,
      "Ġresign": 8026,
      "Ġagents": 8027,
      "Ġattrib": 8028,
      "Ġ67": 8029,
      "ĠSee": 8030,
      "ĠSeason": 8031,
      "ĠDeath": 8032,
      "Ġformat": 8033,
      "Ġfounder": 8034,
      "atherine": 8035,
      "ĠScully": 8036,
      "Ġobst": 8037,
      "Ġdepicts": 8038,
      "Ġinstru": 8039,
      "Ġcounties": 8040,
      "Ġcharacterized": 8041,
      "ĠProg": 8042,
      "pended": 8043,
      "Ġengage": 8044,
      "ĠManagement": 8045,
      "Ġstarred": 8046,
      "Ġformerly": 8047,
      "Ġwestward": 8048,
      "ĠMinor": 8049,
      "ĠPerfect": 8050,
      "Ġfrig": 8051,
      "Ġstatistics": 8052,
      "ĠBarry": 8053,
      "Ġprogramme": 8054,
      "Ġradiation": 8055,
      "ĠKevin": 8056,
      "Ġ1850": 8057,
      "Ġfallen": 8058,
      "Ġmeasured": 8059,
      "Ġcosts": 8060,
      "Ġburial": 8061,
      "Ġcopy": 8062,
      "Ġobjective": 8063,
      "Ġnetworks": 8064,
      "ĠMoore": 8065,
      "ĠRussia": 8066,
      "Ġcleared": 8067,
      "Ġcheck": 8068,
      "Ġbiggest": 8069,
      "Ġdepending": 8070,
      "Ġphotograph": 8071,
      "Ġinstitution": 8072,
      "Ġvehicle": 8073,
      "Ġremarked": 8074,
      "Ġexcavation": 8075,
      "Ġholiday": 8076,
      "ĠJourney": 8077,
      "ĠAlbums": 8078,
      "Ġdelayed": 8079,
      "ĠColeman": 8080,
      "umption": 8081,
      "ĠBulls": 8082,
      "ĠGilbert": 8083,
      "ĠWiÅĽ": 8084,
      "owiecki": 8085,
      "Ġconvinced": 8086,
      "Ġpsych": 8087,
      "Ġinfrastructure": 8088,
      "ĠHudson": 8089,
      "niowiecki": 8090,
      "ĠWiÅĽniowiecki": 8091,
      "hist": 8092,
      "mel": 8093,
      "nce": 8094,
      "oe": 8095,
      "uable": 8096,
      "Äĩ": 8097,
      "heim": 8098,
      "hered": 8099,
      "eratops": 8100,
      "Ġsed": 8101,
      "Ġmamm": 8102,
      "Ġdream": 8103,
      "Ġhorn": 8104,
      "ĠSid": 8105,
      "ĠSuch": 8106,
      "ĠBudd": 8107,
      "Ġstyles": 8108,
      "otal": 8109,
      "ĠGate": 8110,
      "Ġrum": 8111,
      "Ġrivers": 8112,
      "ategy": 8113,
      "akota": 8114,
      "ĠStories": 8115,
      "Ġcompound": 8116,
      "ruz": 8117,
      "assador": 8118,
      "Ġresidence": 8119,
      "Ġplayoff": 8120,
      "Ġimpl": 8121,
      "amps": 8122,
      "ĠAnzac": 8123,
      "oyage": 8124,
      "ĠArsenal": 8125,
      "Ġ84": 8126,
      "Ġ86": 8127,
      "Ġconservation": 8128,
      "Ġformal": 8129,
      "Ġdecides": 8130,
      "Ġdescribe": 8131,
      "ĠWarren": 8132,
      "Ġinscription": 8133,
      "Ġhelmet": 8134,
      "Ġ140": 8135,
      "Ġrestoration": 8136,
      "ĠCanal": 8137,
      "Ġdifferences": 8138,
      "ĠGray": 8139,
      "ĠRoth": 8140,
      "Ġ1926": 8141,
      "Ġopponent": 8142,
      "Ġcrake": 8143,
      "Ġclaiming": 8144,
      "Ġskills": 8145,
      "ĠMagdal": 8146,
      "Ġpredators": 8147,
      "Ġaudiences": 8148,
      "Ġclosest": 8149,
      "criptions": 8150,
      "Ġdetermine": 8151,
      "Ġclearly": 8152,
      "Ġhousing": 8153,
      "Ġrailroad": 8154,
      "ĠRepublican": 8155,
      "Ġdisplayed": 8156,
      "ĠOscar": 8157,
      "avalry": 8158,
      "Ġvote": 8159,
      "ĠMrs": 8160,
      "ĠTrek": 8161,
      "Ġsafe": 8162,
      "ĠOriginally": 8163,
      "Ġranging": 8164,
      "Ġhunting": 8165,
      "ĠSilver": 8166,
      "ĠNevertheless": 8167,
      "ĠMemorial": 8168,
      "Ġreservoir": 8169,
      "Ġreinforcements": 8170,
      "Ġbenefit": 8171,
      "Ġcrops": 8172,
      "ĠPersian": 8173,
      "Ġpredecessor": 8174,
      "ĠInitially": 8175,
      "ĠTerritory": 8176,
      "Ġcitizens": 8177,
      "ĠOrganization": 8178,
      "Ġfeathers": 8179,
      "ĠHokies": 8180,
      "Mal": 8181,
      "boy": 8182,
      "ef": 8183,
      "lie": 8184,
      "piece": 8185,
      "rates": 8186,
      "rating": 8187,
      "tic": 8188,
      "wald": 8189,
      "onia": 8190,
      "rees": 8191,
      "Ġsung": 8192,
      "itt": 8193,
      "Ġtoll": 8194,
      "icate": 8195,
      "Ġdipl": 8196,
      "leged": 8197,
      "ĠAz": 8198,
      "oming": 8199,
      "ĠCategory": 8200,
      "ĠISB": 8201,
      "ĠRain": 8202,
      "Ġalleged": 8203,
      "ĠDiv": 8204,
      "aints": 8205,
      "Ġprol": 8206,
      "iform": 8207,
      "abil": 8208,
      "ĠChagas": 8209,
      "ĠValk": 8210,
      "Ġadm": 8211,
      "Ġteen": 8212,
      "Ġattained": 8213,
      "ĠUntil": 8214,
      "ĠComb": 8215,
      "Ġregiment": 8216,
      "Ġcooper": 8217,
      "Ġthereafter": 8218,
      "Ġgrown": 8219,
      "Ġelections": 8220,
      "Ġenth": 8221,
      "rosaur": 8222,
      "Ġteamm": 8223,
      "Ġinstall": 8224,
      "yline": 8225,
      "Ġanyone": 8226,
      "Ġcargo": 8227,
      "ĠBeh": 8228,
      "Ġpromised": 8229,
      "Ġrestricted": 8230,
      "Ġchildhood": 8231,
      "Ġpossess": 8232,
      "Ġarrive": 8233,
      "Ġslide": 8234,
      "Ġcommandment": 8235,
      "iveness": 8236,
      "Ġtemporary": 8237,
      "ĠAbby": 8238,
      "shore": 8239,
      "Ġrepresentative": 8240,
      "Ġ1905": 8241,
      "sequently": 8242,
      "Ġannounce": 8243,
      "Ġgrounds": 8244,
      "Ġfuner": 8245,
      "Ġranking": 8246,
      "ucky": 8247,
      "Ġerr": 8248,
      "Ġargues": 8249,
      "ĠRocky": 8250,
      "Ġdefending": 8251,
      "Ġruling": 8252,
      "Ġperspective": 8253,
      "ĠTurks": 8254,
      "Ġadaptation": 8255,
      "Ġdegrees": 8256,
      "ĠVictorian": 8257,
      "Ġbadly": 8258,
      "Ġmagnitude": 8259,
      "Ġscientists": 8260,
      "ĠConfeder": 8261,
      "ĠCommunist": 8262,
      "Ġranges": 8263,
      "Ġpreparation": 8264,
      "Ġthrone": 8265,
      "ĠChapel": 8266,
      "Ġtunnel": 8267,
      "ĠJonathan": 8268,
      "Ġprompted": 8269,
      "ĠLeslie": 8270,
      "ĠLegacy": 8271,
      "Ġexclusively": 8272,
      "ĠMathews": 8273,
      "Ġastronom": 8274,
      "Ġmoderate": 8275,
      "Ġimprison": 8276,
      "ĠKelly": 8277,
      "ĠExpress": 8278,
      "ĠProtestant": 8279,
      "Malley": 8280,
      "ĠISBN": 8281,
      "ĠValkyria": 8282,
      "AT": 8283,
      "CC": 8284,
      "DS": 8285,
      "EFA": 8286,
      "aun": 8287,
      "burn": 8288,
      "fess": 8289,
      "put": 8290,
      "yer": 8291,
      "inery": 8292,
      "Ġtheater": 8293,
      "rec": 8294,
      "Ġsad": 8295,
      "Ġster": 8296,
      "Ġsisters": 8297,
      "Ġcake": 8298,
      "Ġcaves": 8299,
      "Ġbed": 8300,
      "Ġbones": 8301,
      "inger": 8302,
      "Ġmoon": 8303,
      "icit": 8304,
      "icia": 8305,
      "Ġdwar": 8306,
      "Ġhuge": 8307,
      "ĠSle": 8308,
      "Ġeasy": 8309,
      "Ġnav": 8310,
      "Ġnurse": 8311,
      "eline": 8312,
      "adheera": 8313,
      "Ġbear": 8314,
      "Ġgates": 8315,
      "ola": 8316,
      "olen": 8317,
      "owa": 8318,
      "ĠHope": 8319,
      "uses": 8320,
      "ĠDave": 8321,
      "ĠDyn": 8322,
      "ĠGun": 8323,
      "ĠLover": 8324,
      "Ġdeity": 8325,
      "Ġdeleg": 8326,
      "Ġexists": 8327,
      "ĠâĢľ": 8328,
      "ĠUEFA": 8329,
      "ĠStal": 8330,
      "ishn": 8331,
      "ĠVul": 8332,
      "Ġclim": 8333,
      "Ġresumed": 8334,
      "Ġ58": 8335,
      "Ġdesert": 8336,
      "Ġmanga": 8337,
      "Ġenh": 8338,
      "Ġoutbreak": 8339,
      "ternal": 8340,
      "Ġ78": 8341,
      "ĠAsh": 8342,
      "Ġrelation": 8343,
      "Ġconsol": 8344,
      "Ġcharged": 8345,
      "Ġprime": 8346,
      "Ġ08": 8347,
      "Ġdecay": 8348,
      "Ġpoison": 8349,
      "ĠShow": 8350,
      "Ġ178": 8351,
      "Ġreprodu": 8352,
      "Ġnorthward": 8353,
      "ĠPlat": 8354,
      "ĠAllen": 8355,
      "ĠProfess": 8356,
      "Ġexplains": 8357,
      "gery": 8358,
      "Ġhandled": 8359,
      "ĠMcL": 8360,
      "Ġmyst": 8361,
      "Ġeveryone": 8362,
      "Ġtwin": 8363,
      "braska": 8364,
      "alymp": 8365,
      "Ġbands": 8366,
      "ĠParalymp": 8367,
      "ĠEvent": 8368,
      "ĠNebraska": 8369,
      "Ġsky": 8370,
      "ĠMagadheera": 8371,
      "Ġsteam": 8372,
      "Ġengineer": 8373,
      "Ġinjured": 8374,
      "Ġamounts": 8375,
      "Ġcolonies": 8376,
      "rupted": 8377,
      "Ġboundary": 8378,
      "Ġcelebrated": 8379,
      "ĠWaterfall": 8380,
      "Ġarchitecture": 8381,
      "ĠOutstanding": 8382,
      "Ġcorner": 8383,
      "Ġadvertising": 8384,
      "ĠCheval": 8385,
      "ĠDemocratic": 8386,
      "Ġutil": 8387,
      "Ġrifle": 8388,
      "ĠBrooks": 8389,
      "Ġbulk": 8390,
      "Ġstrengthened": 8391,
      "Ġinhabitants": 8392,
      "Ġerected": 8393,
      "ĠBertin": 8394,
      "Ġethnic": 8395,
      "Ġdeemed": 8396,
      "ĠTreaty": 8397,
      "ĠIraq": 8398,
      "Ġdwarf": 8399,
      "SA": 8400,
      "gov": 8401,
      "kh": 8402,
      "night": 8403,
      "ris": 8404,
      "Ġtack": 8405,
      "Ġturb": 8406,
      "Ġaw": 8407,
      "Ġwet": 8408,
      "Ġcars": 8409,
      "Ġfate": 8410,
      "Ġfant": 8411,
      "Ġbell": 8412,
      "Ġbind": 8413,
      "Ġbanned": 8414,
      "Ġinse": 8415,
      "Ġdraf": 8416,
      "ĠTro": 8417,
      "Ġrever": 8418,
      "Ġlake": 8419,
      "omtav": 8420,
      "ĠCatechism": 8421,
      "urrent": 8422,
      "ĠMuch": 8423,
      "Ġgarrison": 8424,
      "ĠHor": 8425,
      "ĠPryce": 8426,
      "ĠRem": 8427,
      "emies": 8428,
      "osom": 8429,
      "ĠNash": 8430,
      "Ġanth": 8431,
      "ĠLang": 8432,
      "Ġrib": 8433,
      "ifies": 8434,
      "illed": 8435,
      "apse": 8436,
      "uez": 8437,
      "okovic": 8438,
      "ĠHeaven": 8439,
      "ĠThus": 8440,
      "Ġscattered": 8441,
      "Ġpartner": 8442,
      "Ġtexts": 8443,
      "weight": 8444,
      "ĠUnivers": 8445,
      "ĠAsomtav": 8446,
      "ĠArk": 8447,
      "Ġcanc": 8448,
      "Ġrecordings": 8449,
      "Ġproductions": 8450,
      "Ġsubstitute": 8451,
      "rophy": 8452,
      "Ġenters": 8453,
      "Ġ165": 8454,
      "Ġmonuments": 8455,
      "Ġ113": 8456,
      "Ġexposed": 8457,
      "Ġlandings": 8458,
      "Ġdesigner": 8459,
      "Ġwarning": 8460,
      "Ġinscriptions": 8461,
      "ĠBeet": 8462,
      "Ġstrategy": 8463,
      "ĠHerze": 8464,
      "rows": 8465,
      "Ġdriver": 8466,
      "ĠTracy": 8467,
      "Ġdifference": 8468,
      "plete": 8469,
      "Ġ1924": 8470,
      "Ġ1925": 8471,
      "Ġbreed": 8472,
      "Ġdemands": 8473,
      "Ġprofile": 8474,
      "ĠDavis": 8475,
      "Ġpriest": 8476,
      "Ġsteep": 8477,
      "Ġcondem": 8478,
      "apping": 8479,
      "Ġsupern": 8480,
      "Ġfundament": 8481,
      "ĠHarold": 8482,
      "ĠMadrid": 8483,
      "ĠBusiness": 8484,
      "Ġexecuted": 8485,
      "ĠEmmy": 8486,
      "Ġprevented": 8487,
      "Ġdominant": 8488,
      "Ġsettlements": 8489,
      "Ġuncertain": 8490,
      "ĠDjokovic": 8491,
      "Ġjudge": 8492,
      "ASP": 8493,
      "Ġpursue": 8494,
      "Ġgraphics": 8495,
      "Ġdemonstrated": 8496,
      "Ġexcavations": 8497,
      "Ġdistinctive": 8498,
      "Ġturrets": 8499,
      "iggs": 8500,
      "otype": 8501,
      "Ġtactics": 8502,
      "ĠRailway": 8503,
      "Ġapplication": 8504,
      "Ġdistinguished": 8505,
      "ĠRifles": 8506,
      "eorological": 8507,
      "ĠYankees": 8508,
      "ĠNielsen": 8509,
      "govina": 8510,
      "ĠAsomtavruli": 8511,
      "ĠHerzegovina": 8512,
      "AC": 8513,
      "EC": 8514,
      "ij": 8515,
      "mouth": 8516,
      "noon": 8517,
      "rus": 8518,
      "uen": 8519,
      "Ġtenth": 8520,
      "Ġaster": 8521,
      "inian": 8522,
      "Ġpine": 8523,
      "Ġpounds": 8524,
      "Ġmbar": 8525,
      "Ġrevers": 8526,
      "oux": 8527,
      "ilation": 8528,
      "Ġforty": 8529,
      "oli": 8530,
      "ĠBible": 8531,
      "imal": 8532,
      "Ġstood": 8533,
      "otten": 8534,
      "ĠWomen": 8535,
      "ĠNL": 8536,
      "ĠLower": 8537,
      "avel": 8538,
      "rior": 8539,
      "Ġcomed": 8540,
      "ifer": 8541,
      "Ġsure": 8542,
      "arte": 8543,
      "udes": 8544,
      "ĠKong": 8545,
      "Ġtrust": 8546,
      "ĠVe": 8547,
      "ĠVeer": 8548,
      "ignment": 8549,
      "Ġusage": 8550,
      "ĠThose": 8551,
      "Ġscheme": 8552,
      "Ġafternoon": 8553,
      "Ġoffs": 8554,
      "Ġcenters": 8555,
      "Ġfee": 8556,
      "Ġfeels": 8557,
      "Ġconsult": 8558,
      "Ġcharity": 8559,
      "ĠDean": 8560,
      "Ġreleases": 8561,
      "Ġassisted": 8562,
      "ĠShel": 8563,
      "fully": 8564,
      "Ġsmooth": 8565,
      "Ġdowntown": 8566,
      "azines": 8567,
      "Ġconsidering": 8568,
      "Ġedges": 8569,
      "Ġ1934": 8570,
      "ĠClin": 8571,
      "Ġdrain": 8572,
      "Ġportrait": 8573,
      "Ġapproval": 8574,
      "Ġtriple": 8575,
      "ĠMcG": 8576,
      "Ġinitiated": 8577,
      "Ġamongst": 8578,
      "Ġmagazines": 8579,
      "Ġfrust": 8580,
      "Ġsounds": 8581,
      "ĠGlob": 8582,
      "ĠAnglo": 8583,
      "Ġliked": 8584,
      "ĠBerlin": 8585,
      "ĠJews": 8586,
      "ĠMadison": 8587,
      "Ġdefenders": 8588,
      "ĠCongo": 8589,
      "Ġsubjects": 8590,
      "Ġarchaeologist": 8591,
      "Ġindicating": 8592,
      "Ġceratops": 8593,
      "Ġsatell": 8594,
      "ĠOverall": 8595,
      "Ġtournaments": 8596,
      "Ġemergency": 8597,
      "Ġinnov": 8598,
      "Ġsuspended": 8599,
      "ĠTennesse": 8600,
      "Ġboxing": 8601,
      "Ġtranslation": 8602,
      "Ġsucceed": 8603,
      "ĠOriginal": 8604,
      "ĠIndependence": 8605,
      "Ġsacred": 8606,
      "Ġduty": 8607,
      "ĠGallery": 8608,
      "Ġcollaboration": 8609,
      "Ġaltered": 8610,
      "Ġpremiere": 8611,
      "Ġstriking": 8612,
      "Ġphilosophy": 8613,
      "chell": 8614,
      "ĠAlfred": 8615,
      "ĠMurray": 8616,
      "Ġresidential": 8617,
      "Ġelder": 8618,
      "borne": 8619,
      "Ġfalse": 8620,
      "Ġmartial": 8621,
      "ĠHouston": 8622,
      "Ġcongreg": 8623,
      "ĠCorporation": 8624,
      "Ġcommemor": 8625,
      "ĠCeltic": 8626,
      "Ġasteroid": 8627,
      "ĠTennessee": 8628,
      "cake": 8629,
      "ois": 8630,
      "pic": 8631,
      "Ġtale": 8632,
      "Ġcous": 8633,
      "Ġfert": 8634,
      "Ġbod": 8635,
      "Ġbishop": 8636,
      "Ġtoured": 8637,
      "ĠAman": 8638,
      "ĠAuth": 8639,
      "ilty": 8640,
      "ĠSAS": 8641,
      "Ġlam": 8642,
      "Ġnations": 8643,
      "amount": 8644,
      "ĠMach": 8645,
      "ĠBat": 8646,
      "ote": 8647,
      "utor": 8648,
      "Ġconclusion": 8649,
      "ĠWag": 8650,
      "ĠNaval": 8651,
      "ĠNDH": 8652,
      "agine": 8653,
      "ĠEsh": 8654,
      "Ġchamber": 8655,
      "sex": 8656,
      "ĠKen": 8657,
      "ĠKurt": 8658,
      "ellar": 8659,
      "Ġroots": 8660,
      "oko": 8661,
      "ffield": 8662,
      "ĠOntar": 8663,
      "Ġ92": 8664,
      "ĠMariana": 8665,
      "Ġflash": 8666,
      "ologies": 8667,
      "Ġ09": 8668,
      "Ġ101": 8669,
      "ĠSheffield": 8670,
      "Ġobl": 8671,
      "Ġpoll": 8672,
      "Ġreceives": 8673,
      "Ġimpressed": 8674,
      "ĠFran": 8675,
      "ervative": 8676,
      "Ġvariation": 8677,
      "Ġguilty": 8678,
      "ĠGrade": 8679,
      "Ġexplo": 8680,
      "Ġcolleagues": 8681,
      "Ġ1000": 8682,
      "Ġcrisis": 8683,
      "Ġrealized": 8684,
      "Ġcommunication": 8685,
      "Ġdeliber": 8686,
      "ĠRomanian": 8687,
      "Ġordering": 8688,
      "Ġnortheastern": 8689,
      "ĠXenon": 8690,
      "encing": 8691,
      "Ġ1908": 8692,
      "ĠNext": 8693,
      "Ġbattlecru": 8694,
      "Ġreducing": 8695,
      "Ġfifty": 8696,
      "ĠSwiss": 8697,
      "Ġrespective": 8698,
      "Ġreveal": 8699,
      "Ġcrews": 8700,
      "Ġrebuilt": 8701,
      "Ġ1870": 8702,
      "Ġviolent": 8703,
      "Ġquarterback": 8704,
      "ĠImagine": 8705,
      "Ġoccupation": 8706,
      "Ġtesting": 8707,
      "ĠAgain": 8708,
      "ĠPriest": 8709,
      "Ġfrequent": 8710,
      "Ġadopt": 8711,
      "ĠFinals": 8712,
      "ĠMountains": 8713,
      "ĠBelg": 8714,
      "Ġschedule": 8715,
      "Ġrequested": 8716,
      "Ġtalking": 8717,
      "ĠHawaii": 8718,
      "Ġmanufactur": 8719,
      "ĠConservation": 8720,
      "Ġdefinition": 8721,
      "Ġdelivery": 8722,
      "ĠGiants": 8723,
      "Ġfatal": 8724,
      "ĠVillage": 8725,
      "Ġeliminated": 8726,
      "ĠCubs": 8727,
      "burgh": 8728,
      "ĠRelease": 8729,
      "Ġsimultaneously": 8730,
      "ĠWicca": 8731,
      "ĠChevaliers": 8732,
      "ĠWagner": 8733,
      "ĠEshmun": 8734,
      "ĠOntario": 8735,
      "ait": 8736,
      "don": 8737,
      "gars": 8738,
      "jamin": 8739,
      "oes": 8740,
      "tah": 8741,
      "yo": 8742,
      "Ã§": 8743,
      "nda": 8744,
      "Ġcup": 8745,
      "Ġpull": 8746,
      "rog": 8747,
      "ĠAce": 8748,
      "ĠABC": 8749,
      "Ġnet": 8750,
      "Ġnurs": 8751,
      "ĠCP": 8752,
      "ellect": 8753,
      "adier": 8754,
      "ĠMant": 8755,
      "Ġgets": 8756,
      "ĠBah": 8757,
      "Ġstrict": 8758,
      "ĠHarrison": 8759,
      "ĠPle": 8760,
      "ĠRhys": 8761,
      "ĠDig": 8762,
      "ĠDog": 8763,
      "ĠDakota": 8764,
      "ĠNS": 8765,
      "ĠGhost": 8766,
      "aganda": 8767,
      "Ġsend": 8768,
      "ĠOreg": 8769,
      "ĠOmar": 8770,
      "Ġvul": 8771,
      "oples": 8772,
      "Ġyield": 8773,
      "ĠStav": 8774,
      "Ġtrick": 8775,
      "Ġcomponents": 8776,
      "Ġintellect": 8777,
      "Ġclin": 8778,
      "Ġupset": 8779,
      "Ġspur": 8780,
      "ĠAnne": 8781,
      "ĠAsian": 8782,
      "Ġpeaking": 8783,
      "ĠLeigh": 8784,
      "Ġ02": 8785,
      "Ġ123": 8786,
      "Ġ155": 8787,
      "Ġobvious": 8788,
      "Ġrunners": 8789,
      "Ġoperates": 8790,
      "rapped": 8791,
      "Ġimpression": 8792,
      "Ġcarri": 8793,
      "Ġmathem": 8794,
      "ĠCarre": 8795,
      "Ġmetre": 8796,
      "ĠChristine": 8797,
      "Ġhelium": 8798,
      "Ġvisiting": 8799,
      "Ġrefuge": 8800,
      "Ġ1923": 8801,
      "Ġorganised": 8802,
      "Ġsentences": 8803,
      "ĠPeach": 8804,
      "Ġshoulder": 8805,
      "ĠEvans": 8806,
      "aski": 8807,
      "Ġfifteen": 8808,
      "Ġasks": 8809,
      "Ġrounds": 8810,
      "Ġemployees": 8811,
      "ĠHills": 8812,
      "Ġpotentially": 8813,
      "Ġjobs": 8814,
      "Ġnewspapers": 8815,
      "Ġkilome": 8816,
      "ĠBenjamin": 8817,
      "ĠHawaiian": 8818,
      "Ġrhyme": 8819,
      "Ġwithdrawal": 8820,
      "Ġmechanical": 8821,
      "Ġvenues": 8822,
      "Ġinterpre": 8823,
      "Ġmolecules": 8824,
      "Ġassassination": 8825,
      "ĠCaes": 8826,
      "ĠAncient": 8827,
      "ĠPulaski": 8828,
      "ĠQueensland": 8829,
      "ĠLabour": 8830,
      "Ġcollapsed": 8831,
      "Ġculmin": 8832,
      "Ġelaborate": 8833,
      "ĠEventually": 8834,
      "ĠOregon": 8835,
      "Pa": 8836,
      "ba": 8837,
      "xual": 8838,
      "ÅĤ": 8839,
      "Ġsang": 8840,
      "Ġori": 8841,
      "Ġwel": 8842,
      "atropical": 8843,
      "Ġdies": 8844,
      "ĠSS": 8845,
      "ĠSn": 8846,
      "ĠSem": 8847,
      "ĠSand": 8848,
      "ĠCase": 8849,
      "ĠCany": 8850,
      "eless": 8851,
      "ĠMit": 8852,
      "Ġgust": 8853,
      "oln": 8854,
      "ĠBanks": 8855,
      "Ġstores": 8856,
      "uty": 8857,
      "Ġisot": 8858,
      "ĠPow": 8859,
      "ĠPrest": 8860,
      "ĠRace": 8861,
      "ĠWing": 8862,
      "ĠNar": 8863,
      "ĠNob": 8864,
      "ĠLinc": 8865,
      "agod": 8866,
      "umin": 8867,
      "Ġride": 8868,
      "ĠEric": 8869,
      "Ġvice": 8870,
      "Ġsuitable": 8871,
      "illiant": 8872,
      "apore": 8873,
      "aku": 8874,
      "acked": 8875,
      "iney": 8876,
      "ĠCharts": 8877,
      "raia": 8878,
      "Ġcontribution": 8879,
      "ogy": 8880,
      "Ġclust": 8881,
      "Ġabol": 8882,
      "angular": 8883,
      "ĠSection": 8884,
      "Ġearning": 8885,
      "Ġremove": 8886,
      "Ġacids": 8887,
      "obile": 8888,
      "ohl": 8889,
      "Ġsurgery": 8890,
      "Ġ163": 8891,
      "ieties": 8892,
      "ernon": 8893,
      "Ġartistic": 8894,
      "Ġexpression": 8895,
      "Ġconstant": 8896,
      "Ġadvancing": 8897,
      "Ġdams": 8898,
      "ĠPlan": 8899,
      "ĠCommons": 8900,
      "ĠUSS": 8901,
      "ĠChristopher": 8902,
      "Ġdirectors": 8903,
      "Ġclassification": 8904,
      "ĠTrust": 8905,
      "Ġconflic": 8906,
      "Ġkills": 8907,
      "Ġsentiment": 8908,
      "Ġpersonality": 8909,
      "ĠWeb": 8910,
      "Ġreferring": 8911,
      "Ġparas": 8912,
      "Ġparody": 8913,
      "Ġtrouble": 8914,
      "Ġfactory": 8915,
      "Ġstructural": 8916,
      "Ġputting": 8917,
      "Ġsumm": 8918,
      "ĠCorb": 8919,
      "ucks": 8920,
      "Ġvalid": 8921,
      "ĠSupreme": 8922,
      "Ġcreative": 8923,
      "Ġasking": 8924,
      "Ġrenov": 8925,
      "atinum": 8926,
      "Ġmachines": 8927,
      "Ġdiagn": 8928,
      "Ġ1830": 8929,
      "ĠValve": 8930,
      "ĠSingapore": 8931,
      "Ġdrove": 8932,
      "Ġspacecraft": 8933,
      "Ġdispute": 8934,
      "ĠWoodhouse": 8935,
      "Ġcompliment": 8936,
      "Ġboundaries": 8937,
      "Ġdocumented": 8938,
      "Ġtranslated": 8939,
      "Ġinhab": 8940,
      "Ġextratropical": 8941,
      "Ġyoungest": 8942,
      "ĠKorea": 8943,
      "Ġseeking": 8944,
      "ĠChildren": 8945,
      "Ġenvironmental": 8946,
      "Ġcomparison": 8947,
      "ĠSorraia": 8948,
      "Ġcolumns": 8949,
      "Ġtheatrical": 8950,
      "ĠIslamic": 8951,
      "ĠSimilarly": 8952,
      "Ã¶n": 8953,
      "imetres": 8954,
      "ekend": 8955,
      "ĠFoundation": 8956,
      "ĠSisler": 8957,
      "ĠProgram": 8958,
      "ĠCanyon": 8959,
      "ĠLincoln": 8960,
      "Grom": 8961,
      "IA": 8962,
      "NC": 8963,
      "NL": 8964,
      "dney": 8965,
      "krit": 8966,
      "mont": 8967,
      "oard": 8968,
      "Ã¸": 8969,
      "Ġsample": 8970,
      "unes": 8971,
      "Ġcave": 8972,
      "Ġfishing": 8973,
      "enic": 8974,
      "Ġinclusion": 8975,
      "inge": 8976,
      "ashed": 8977,
      "Ġtopped": 8978,
      "Ġhull": 8979,
      "ĠTogether": 8980,
      "ĠSant": 8981,
      "Ġlat": 8982,
      "Ġlies": 8983,
      "Ġlibrary": 8984,
      "ĠCred": 8985,
      "ĠCress": 8986,
      "ĠCullen": 8987,
      "acruz": 8988,
      "Ġbeam": 8989,
      "ĠBad": 8990,
      "ĠBab": 8991,
      "ĠBidd": 8992,
      "ĠHans": 8993,
      "etime": 8994,
      "ĠPf": 8995,
      "ĠPubl": 8996,
      "Ġalt": 8997,
      "ĠFace": 8998,
      "ĠDD": 8999,
      "ĠDie": 9000,
      "ĠWhere": 9001,
      "ĠWASP": 9002,
      "ĠNear": 9003,
      "ĠNatural": 9004,
      "ĠNett": 9005,
      "ĠanekÄģntavÄģda": 9006,
      "ĠLud": 9007,
      "ĠLost": 9008,
      "ĠJard": 9009,
      "ĠJason": 9010,
      "Ġrising": 9011,
      "odore": 9012,
      "Ġplus": 9013,
      "Ġkit": 9014,
      "ĠKnow": 9015,
      "Ġnotice": 9016,
      "ĠChampions": 9017,
      "Ġdisagre": 9018,
      "Ġenzy": 9019,
      "Ġspending": 9020,
      "ugu": 9021,
      "inder": 9022,
      "Ġproduces": 9023,
      "Ġprint": 9024,
      "Ġsubmitted": 9025,
      "Ġgray": 9026,
      "Ġcoff": 9027,
      "enden": 9028,
      "ĠBriggs": 9029,
      "Ġcompleting": 9030,
      "Ġbridges": 9031,
      "ĠConc": 9032,
      "ennium": 9033,
      "byter": 9034,
      "Ġreflected": 9035,
      "Ġtrials": 9036,
      "Ġexplain": 9037,
      "Ġorganisation": 9038,
      "Ġpersonally": 9039,
      "porarily": 9040,
      "Ġexpert": 9041,
      "Ġbases": 9042,
      "Ġanthem": 9043,
      "Ġtemporarily": 9044,
      "Ġtwent": 9045,
      "Ġcommunications": 9046,
      "Ġsolar": 9047,
      "Ġrepresentation": 9048,
      "Ġprogramming": 9049,
      "Ġ1907": 9050,
      "Ġrevised": 9051,
      "Ġprofessor": 9052,
      "Ġswim": 9053,
      "Ġsuperv": 9054,
      "Ġfalls": 9055,
      "Ġarmament": 9056,
      "ĠSym": 9057,
      "Ġcollapse": 9058,
      "ĠCooper": 9059,
      "Ġhonour": 9060,
      "Ġremoval": 9061,
      "Ġarchaeology": 9062,
      "ĠVeracruz": 9063,
      "Ġquestions": 9064,
      "ĠPrix": 9065,
      "ĠPrize": 9066,
      "Ġbirthday": 9067,
      "Ġsemif": 9068,
      "Ġfavorable": 9069,
      "Ġprepare": 9070,
      "Ġ766": 9071,
      "Ġpowered": 9072,
      "Ġsculptures": 9073,
      "ĠLouisiana": 9074,
      "ĠSpecies": 9075,
      "Ġbattleships": 9076,
      "ĠFurthermore": 9077,
      "ĠObser": 9078,
      "Ġvertical": 9079,
      "Ġencountered": 9080,
      "Ġsegment": 9081,
      "ĠIngres": 9082,
      "ĠChronicles": 9083,
      "ĠTelugu": 9084,
      "ĠSanskrit": 9085,
      "Ġsatellite": 9086,
      "ĠBelgium": 9087,
      "ĠCresswell": 9088,
      "ĠBiddenden": 9089,
      "ĠNettles": 9090,
      "ĠJardine": 9091,
      "eign": 9092,
      "gets": 9093,
      "ract": 9094,
      "ta": 9095,
      "Ġï": 9096,
      "Ġump": 9097,
      "Ġsailed": 9098,
      "Ġwives": 9099,
      "Ġwishes": 9100,
      "Ġchest": 9101,
      "itively": 9102,
      "Ġfoss": 9103,
      "Ġfitted": 9104,
      "Ġbom": 9105,
      "Ġbarr": 9106,
      "Ġphen": 9107,
      "Ġhidden": 9108,
      "ĠTok": 9109,
      "ĠSony": 9110,
      "elle": 9111,
      "urally": 9112,
      "ĠMir": 9113,
      "ĠBald": 9114,
      "irates": 9115,
      "ĠDers": 9116,
      "ĠDud": 9117,
      "ulu": 9118,
      "Ġhem": 9119,
      "agogue": 9120,
      "ĠJun": 9121,
      "ewise": 9122,
      "Ġshares": 9123,
      "ĠâĢĿ": 9124,
      "Ġtru": 9125,
      "ĠChron": 9126,
      "Ġuniform": 9127,
      "ieth": 9128,
      "ansfield": 9129,
      "Ġjunior": 9130,
      "overeign": 9131,
      "Ġupgraded": 9132,
      "ĠYo": 9133,
      "ĠYouth": 9134,
      "Ġprefect": 9135,
      "Ġpretty": 9136,
      "Ġevident": 9137,
      "enses": 9138,
      "Ġmeters": 9139,
      "Ġcanal": 9140,
      "Ġpublishing": 9141,
      "Ġindeed": 9142,
      "Ġ03": 9143,
      "Ġsurge": 9144,
      "phoon": 9145,
      "Ġmainland": 9146,
      "Ġorigins": 9147,
      "erto": 9148,
      "Ġgenera": 9149,
      "Ġrepair": 9150,
      "Ġweekly": 9151,
      "minster": 9152,
      "Ġarriving": 9153,
      "Ġ1922": 9154,
      "Ġslip": 9155,
      "Ġtraded": 9156,
      "vesinje": 9157,
      "Ġjoining": 9158,
      "ĠWestminster": 9159,
      "ĠXII": 9160,
      "incial": 9161,
      "Ġcharted": 9162,
      "ĠNevesinje": 9163,
      "ĠRegister": 9164,
      "Ġconvention": 9165,
      "ĠMagn": 9166,
      "Ġhighways": 9167,
      "Ġarmored": 9168,
      "Ġbiological": 9169,
      "Ġnominations": 9170,
      "Ġdiscussion": 9171,
      "Ġobjectives": 9172,
      "ĠSocial": 9173,
      "Ġkeeping": 9174,
      "Ġcoinc": 9175,
      "ĠAnti": 9176,
      "Ġinvestigation": 9177,
      "Ġboys": 9178,
      "Ġstruggled": 9179,
      "ĠErnest": 9180,
      "Ġpleasure": 9181,
      "Ġemphasis": 9182,
      "Ġneutral": 9183,
      "Ġbeliefs": 9184,
      "ĠMichel": 9185,
      "Ġpulled": 9186,
      "Ġaccomplish": 9187,
      "Ġchoose": 9188,
      "Ġassembled": 9189,
      "Ġupdated": 9190,
      "ĠJacob": 9191,
      "ĠCampbell": 9192,
      "Ġdemolished": 9193,
      "ĠARVN": 9194,
[...]
